{"format": "max-bpe-v1", "vocab_size": 4096, "n_reserved": 32, "alphabet": ["!", "\"", "$", "&", "'", "(", ")", "*", "+", ",", "-", ".", "/", "0", "1", "2", "3", "4", "5", "6", "7", "8", "9", ":", ";", "?", "A", "B", "C", "D", "E", "F", "G", "H", "I", "J", "K", "L", "M", "N", "O", "P", "Q", "R", "S", "T", "U", "V", "W", "X", "Y", "Z", "\\", "`", "a", "b", "c", "d", "e", "f", "g", "h", "i", "j", "k", "l", "m", "n", "o", "p", "q", "r", "s", "t", "u", "v", "w", "x", "y", "z", "¦", "©", "«", "±", "»", "Â", "Ã", "â", "Ċ", "Ġ", "œ", "Š", "̃", "“", "”", "‰", "‹", "€"], "vocab": ["<|pad|>", "<|bos|>", "<|eos|>", "<|unk|>", "<|solver|>", "<|critic|>", "<|verifier|>", "<|alternative|>", "<|coordinator|>", "<|question|>", "<|steps|>", "<|answer|>", "<|conf|>", "<|issue|>", "<|verdict|>", "<|evidence|>", "<|reserved_16|>", "<|reserved_17|>", "<|reserved_18|>", "<|reserved_19|>", "<|reserved_20|>", "<|reserved_21|>", "<|reserved_22|>", "<|reserved_23|>", "<|reserved_24|>", "<|reserved_25|>", "<|reserved_26|>", "<|reserved_27|>", "<|reserved_28|>", "<|reserved_29|>", "<|reserved_30|>", "<|reserved_31|>", "!", "\"", "$", "&", "'", "(", ")", "*", "+", ",", "-", ".", "/", "0", "1", "2", "3", "4", "5", "6", "7", "8", "9", ":", ";", "?", "A", "B", "C", "D", "E", "F", "G", "H", "I", "J", "K", "L", "M", "N", "O", "P", "Q", "R", "S", "T", "U", "V", "W", "X", "Y", "Z", "\\", "`", "a", "b", "c", "d", "e", "f", "g", "h", "i", "j", "k", "l", "m", "n", "o", "p", "q", "r", "s", "t", "u", "v", "w", "x", "y", "z", "¦", "©", "«", "±", "»", "Â", "Ã", "â", "Ċ", "Ġ", "œ", "Š", "̃", "“", "”", "‰", "‹", "€", "he", "Ġt", "Ġa", "Ġs", "Ġw", "nd", "Ġthe", "ed", "Ġand", "Ġto", "Ġb", "in", "Ġh", "re", "Ġwa", "ou", "Ġf", "it", "Ġl", "Ġc", "Ġd", "er", "Ġhe", "Ġm", "Ġp", "Ġwas", "ĠT", "om", "ay", "Ġo", "ar", "is", "ing", "il", "Ġg", "id", "at", "en", "Ġn", "Ġsa", "Ġha", "ĠThe", "ĠS", "an", "im", "or", "on", "Ġit", "Ġth", "ll", "ĠH", "le", "ot", "Ġher", "et", "ir", "ĠShe", "es", "Ġin", "ver", "ĠThey", "ut", "ow", "ck", "Ġe", "Ġy", "Ġu", "ld", "oo", "ily", "Ġsaid", "ig", "Ġr", "Ġ\"", "Ġbe", "am", "ĠI", "Ġst", "ke", "ce", "ve", "ith", "Lily", "pp", "Ġshe", "Ġwith", "On", "Ġon", "Ġyou", "ked", "ri", "Ġof", "Ġpl", "nt", "Ġhis", "ad", "ĠHe", "Ġso", "very", "Ġday", "Ġthat", "ĠLily", "Ġup", "Ġplay", "Ġthey", "Ġhad", "st", "Ġwe", "Ġmom", "ĠB", "Ġfor", "el", "un", "ould", "'s", "my", "Ġli", "The", "ch", "Ġhapp", "Ġwant", "ent", "Ġsh", "itt", "out", "her", "Ġnot", "Ġdo", "ome", "se", "Ġvery", "ly", "end", "all", "ound", "Ġwh", "Ġk", "ime", "ittle", "ĠM", "Ġtime", "Ġlittle", "al", "Ġne", "Ġthere", "ht", "Ġis", "Ġbig", "Ġhappy", "Ġre", "ĠIt", "Ġsm", "Ġbut", "Ġsaw", "Ġan", ".\"", "ry", "ra", "riend", "Ġfriend", "Ġas", "One", "ide", "ack", "'t", "ug", "!\"", "Ġloo", "Ġwere", "ter", "ved", "Ġlo", "ore", "ake", "Once", "Ġse", "Ġhim", "Ġgo", "Ġare", "Ġj", "Ġwanted", "ard", "Ġbo", "ill", "irl", "Ġthem", "Ġupon", "Ġgirl", "Ġtheir", "Ġout", "Ġat", "ur", "ec", "Ġdid", "ind", "way", "fu", "ĠA", "Ġsp", "Ġcould", "Ġhave", "hen", "ain", "hed", "Ġtoo", "art", "ĠBen", "rom", "Ġcan", "Ġwent", "Ġex", "ic", "Ġar", "lp", "?\"", "ood", "Ġfriends", "ful", "Ġnam", "ĠJ", "Ġkn", "hing", "ight", "Ġhelp", "Ġsay", "Ġall", "immy", "um", "ark", "one", "Ġback", "ĠTom", "Ġfun", "Ġcl", "Ġno", "are", "Ġle", "iled", "op", "Ġnamed", "Ġsc", "Ġal", "elt", "Ġman", "Ġloved", "oug", "Ġsmiled", "ĠOne", "Ġtoy", "side", "Ġlike", "ick", "Ġfelt", "Ġasked", "Ġsee", "Ġme", "Ġfe", "Ġsome", "Ġlooked", "ĠTimmy", "ame", "Ġro", "Ġaround", "ĠW", "omet", "Ġbr", "ure", "Ġbir", "get", "ice", "Ġwould", "Ġboy", "ong", "Ġstart", "as", "Ġbird", "Ġsomet", "ĠY", "Ġmake", "ings", "Ġag", "ade", ",\"", "Ġwhat", "ĠYou", "Ġwor", "dd", "Ġsays", "ĠBut", "king", "Ġfa", "Ġran", "own", "Ġaway", "gether", "Ġtre", "ie", "ared", "ag", "oud", "Ġmade", "Ġstarted", "Ġcar", "if", "Ġtogether", "ther", "Ġpark", "Ġco", "Ġsomething", "Ġother", "ited", "Ġnew", "Ġfrom", "Ġput", "Ġhug", "ook", "Ġagain", "Ġpr", "ell", "ĠL", "ble", "ach", "Ġexc", "Ġgood", "Ġmu", "Ġhome", "Ġla", "ss", "ried", "Ġfl", "Ġwhen", "ep", "Ġwho", "est", "Ġch", "Ġfound", "Ġthen", "Ġdec", "pped", "Ġplaying", "Ġget", "Ġwal", "qu", "nn", "ought", "Ġsw", "Ġliked", "Ġthings", "uck", "pl", "ĠE", "ally", "ous", "Ġgot", "ro", "Ġbl", "Ġexcited", "ara", "Ġdog", "ided", "Ġcame", "Ġyour", "ĠMom", "Ġevery", "Ġdecided", "ax", "ĠD", "ave", "Ġscared", "ĠTim", "ust", "nna", "Ġdown", "Ġone", "ile", "Ġv", "Ġcare", "ouse", "Ġfind", "They", "ap", "Ġbec", "ist", "ny", "Ġthan", "ue", "our", "Ġfeel", "Ġmy", "Ġab", "Ġwill", "Ġdad", "Ġgr", "ers", "arn", "Ġgra", "Ġdidn", "Ġke", "ways", "ess", "Ġsad", "us", "Ġtook", "Ġtoys", "Ġpo", "fe", "nder", "Ġabout", "Ġball", "Th", "Ġalways", "ant", "ĠSam", "Ġmommy", "Ġlot", "Ġkne", "bb", "Ġtree", "ise", "ĠF", "Ġoutside", "Ġthought", "Ġta", "Ġlearn", "ite", "ened", "Ġho", "ret", "Ġmore", "Ġknow", "ched", "ged", "eci", "Ġsor", "Ġint", "Ġcat", "Ġold", "Ġlaug", "Ġtake", "ive", "ĠMax", "Ġknew", "Ġspeci", "Ġspecial", "Ġany", "Ġpe", "fter", "Ġsorry", "Ġhow", "ma", "But", "udd", "udden", "Ġshow", "ink", "Ġtr", "ish", "Ġrun", "uddenly", "Ġsl", "Ġmuch", "Ġhand", "and", "Ġor", "Ġtw", "Ġhouse", "Ġop", "Ġmo", "Ġtried", "Ġsk", "Ġwater", "Ġsun", "hat", "ank", "Ġinto", "Tom", "Ġtold", "Ġinside", "ĠSara", "Ġclo", "ump", "Ġgave", "ty", "Ġeat", "ĠWe", "Ġproud", "Ġif", "Ġeach", "Ġqu", "Ġroom", "ate", "Ġover", "Ġen", "Ġheard", "ĠAnna", "ace", "use", "Ġcouldn", "Ġnever", "Ġpret", "other", "ia", "Ġplayed", "ause", "dy", "Mom", "ak", "ion", "Ġpick", "by", "ĠEvery", "Ġhugged", "etter", "ge", "ven", "Ġexpl", "here", "Ġgre", "Ġjust", "Ġbox", "Ġnice", "Ġcom", "Ġmany", "Ġneed", "oth", "Ġwat", "Ġstr", "Ġoff", "Ġbecause", "sed", "'m", "gry", "Ġsmall", "iz", "ving", "Ġbu", "Ġjo", "Ġfo", "Ġsn", "ine", "Ġlong", "imal", "Ġanimal", "ort", "Ġtry", "urt", "Ġlearned", "uc", "ough", "sel", "Ġunt", "ĠMia", "Ġlove", "ild", "ars", "Ġuntil", "Ġkind", "Ġbetter", "Ġflow", "ĠJack", "Ġim", "urn", "Ġte", "Ġdon", "ĠAnd", "Ġcle", "Ġpu", "Ġend", "ves", "ady", "Ġcall", "Ġbest", "Ġdre", "Ġcareful", "aut", "urp", "Ġfast", "ks", "Ġad", "vent", "ĠC", "Ġgard", "Ġgarden", "Ġfi", "ĠJo", "ber", "Ġbeaut", "ies", "ase", "Ġbra", "Ġsky", "Ġjump", "Ġloud", "Ġthanked", "em", "Ġche", "ĠHer", "Ġlaughed", "Ġby", "ĠSo", "ft", "Ġeven", "pt", "It", "self", "iny", "lly", "Ġlist", "Ġgl", "wn", "Ġhurt", "Ġcome", "Ġhard", "Ġstill", "Ġbeauti", "Ġanimals", "Ġbeautiful", "lew", "Ġfam", "Ġwo", "Ġway", "Ġlots", "Ġunder", "Ġra", "be", "Ġlet", "hes", "ect", "ĠThen", "Ġstay", "ct", "Ġbad", "ĠFrom", "Ġsafe", "ool", "Ġboth", "Ġcol", "ast", "Ġcu", "ople", "Ġrem", "Ġangry", "Ġbook", "Ġlived", "Ġimp", "Ġâ", "ished", "Ġtwo", "Ġbrave", "Ġshould", "No", "Ġred", "Ġfamily", "ane", "Ġpeople", "urpr", "Ġwalked", "Ġstor", "Ġshare", "orn", "Ġsurpr", "igh", "Ġfin", "cks", "Ġflew", "ucy", "Ġsoon", "ip", "Ġdan", "Ġcalled", "fore", "Ġfly", "led", "xt", "Ġcre", "Ben", "Ġthre", "Ġpic", "Ġclean", "Ġpretty", "dded", "Ġkept", "Ġfore", "ised", "Ġdoor", "ob", "ĠWhen", "ĠP", "Ġgoing", "Ġshiny", "Ġkeep", "Ġdra", "Ġnoise", "Ġnow", "Ġturn", "Ġreal", "Ġopened", "Ġwind", "Ġcry", "so", "Ġide", "Ġbefore", "ary", "ummy", "Ġcon", "Ġadvent", "Ġalso", "Ġsto", "Ġground", "age", "les", "ied", "illy", "Ġey", "Ġcolor", "Ġexplore", "Ġidea", "What", "Ġfr", "Ġnodded", "That", "Ġfar", "aybe", "Ġun", "kes", "ture", "Ġwar", "th", "He", "Ġnext", "Ġpicked", "thing", "oy", "Ġbed", "Ġclim", "TM", "Ġwhile", "Ġclimb", "Ġbre", "Ġsmile", "Ġthr", "Ġfeeling", "ĠDad", "Ġtruck", "Ġwalking", "Thank", "eet", "Ġwr", "ĠLucy", "ger", "Ġpicture", "ĠG", "ff", "Ġadventure", "Ġgive", "Ġfood", "Ġthink", "Ġtra", "So", "ac", "Ġbro", "pot", "Ġdif", "iced", "Ġlisten", "ted", "joy", "Ġwait", "Ġeyes", "ious", "ught", "Ġafter", "Ġstopped", "Ġfish", "Ġown", "Ġlooking", "Ġdel", "Ġflowers", "ting", "Let", "Ġrepl", "ember", "Ġshout", "Ġhead", "Ġhands", "She", "Ġblo", "Ġslide", "ized", "Ġgreat", "Ġimport", "Ġblue", "Ġever", "Ġvo", "irst", "Ġenjoy", "able", "Ġus", "Suddenly", "ĠSuddenly", "Ġapp", "Ġremember", "Ġnear", "bbit", "llow", "Ġdis", "Ġsound", "lease", "Ġrain", "Ġquick", "Ġimportant", "Ġforest", "Ġnoticed", "Ġwonder", "Ġde", "maz", "Ġboat", "Ġtal", "Ġwatch", "Ġshowed", "Ġstick", "Ġamaz", "oon", "bbed", "Ġour", "Ġac", "We", "Ġreplied", "Anna", "aking", "Ġstrong", "gan", "fere", "Ġright", "Ġrabbit", "bye", "Ġfollow", "Ġsqu", "ĠSpot", "ning", "day", "Yes", "Ġdoes", "ser", "Ġdiffere", "Ġeveryone", "Ġbright", "Ġwhere", "co", "Ġuse", "Ġhop", "Ġwatched", "ĠSue", "Ġwork", "Ġyell", "Ġface", "Sara", "Ġdress", "Ġquickly", "ath", "ered", "Ġtow", "ange", "Ġstore", "Ġbeen", "Ġsu", "ĠMommy", "Ġbecame", "ĠN", "Ġye", "Ġsure", "Ġcuri", "Ġdifferent", "aught", "Ġvoice", "Ġplace", "Ġforg", "Ġwarm", "Ġam", "Ġchild", "Ġgoodbye", "ĠBob", "Ġcake", "Ġcook", "leep", "Ġhigh", "ndma", "Ġmag", "Ġtell", "more", "Ġanymore", "itc", "ĠR", "Ġcurious", "Ġnight", "Ġcloser", "Ġfav", "ĠTh", "Ġpull", "ount", "Ġopen", "Ġbel", "iss", "ired", "imes", "Ġfirst", "Her", "Ġhere", "unny", "Ġz", "Ġbutter", "ached", "Ġru", "Ġpain", "Ġgrabbed", "Ġbus", "ull", "Ġsees", "itchen", "Ġflo", "Ġkitchen", "Ġsweet", "Ġkid", "Ġthree", "Ġonly", "Ġhelped", "Ġsand", "Ġstop", "Ġmon", "Ġcont", "Ġbirds", "Ġhappened", "Ġjumped", "ĠJoh", "Ġcra", "Ġfire", "Ġglad", "Ġdr", "Ġcr", "ppy", "Ġsing", "ĠDo", "isy", "Ġbeh", "Ġgrass", "Ġper", "Ġtri", "ul", "Ġbrother", "Ġshouted", "After", "ĠLet", "Ġrealized", "Ġstory", "Ġlady", "akes", "Ġsho", "Ġmess", "Ġyummy", "Ġsoft", "Ġgame", "ins", "Ġreached", "ĠSarah", "Ġhaving", "Ġdraw", "Ġate", "Ġsmil", "'re", "Ġfavor", "Ġunderst", "Ġhat", "Ġpretend", "zy", "Ġfavorite", "Ġpap", "arent", "Ġless", "Ġrest", "Jo", "Tim", "Ġready", "ĠCan", "Ġlooks", "where", "Ġthrough", "Ġprin", "ĠJane", "ĠAs", "ater", "ken", "cked", "Ġcars", "Ġmaking", "ĠEveryone", "Ġparent", "Ġbunny", "ather", "Ġreally", "Mommy", "ĠThat", "Ġtired", "Wow", "Ġkids", "Ġhimself", "Ġworld", "Ġcut", "ass", "Ġduck", "Ġmagic", "Ġbegan", "Ġbutterf", "Ġdone", "Ġcatch", "Ġworry", "Ġcoming", "Ġblocks", "Ġcried", "Ġwhy", "bo", "Ġpart", "Ġwaved", "Ġfunny", "Ġhold", "Ġname", "Ġprom", "Ġused", "Ġanother", "Ġflower", "fully", "Ġtast", "Ġste", "Ġfill", "lls", "Ġpus", "Ġfro", "ster", "ng", "You", "Ġseen", "Ġcool", "ĠJoe", "oney", "Ġwished", "eddy", "ient", "iver", "Ġfloor", "Ġdelic", "Ġgreen", "Ġswim", "Ġlikes", "Ġbag", "Ġlight", "Ġpaper", "hy", "Ġmouse", "Timmy", "Ġparents", "Don", "Sam", "Ġdoing", "Ġbehind", "Ġsmell", "Ġlesson", "ation", "sh", "Ġhole", "Ġdri", "Ġsurprise", "andy", "ards", "Ġhopped", "ĠJohn", "Ġsleep", "Ġbow", "Ġfarm", "uff", "Ġworked", "Ġdro", "Joh", "aisy", "Ġread", "Ġdark", "Ġwindow", "Ġyellow", "Ġtrees", "Ġlaugh", "ued", "Ġrunning", "Ġswing", "Ġagre", "Ġdin", "Ġfull", "Ġsat", "ike", "ely", "Ġwood", "Ġspot", "Ġremembered", "aring", "Ġhappily", "Ġbutterfly", "Ġslow", "Ġset", "Ġcold", "Ġsurprised", "Ġlost", "Ġyears", "Ġ-", "Ġice", "ĠIn", "Ġbuy", "Ġneeded", "aby", "Hell", "Hello", "Ġheld", "Ġmove", "Ġfrog", "ens", "Ġanything", "Ġwrong", "Ġlion", "Ġthank", "Ġdream", "John", "Ġhun", "cket", "Ġcarefully", "Ġleft", "Ġtall", "Ġsnow", "Ġfollowed", "Ġperf", "TMs", "Ġel", "Ġdir", "Ġfair", "Ġfinished", "Ġenjoyed", "ream", "Ġhid", "Ġhot", "Ġair", "Ġtable", "Ġcast", "ined", "cess", "Ġarri", "Ġplease", "ds", "Ġchildre", "Ġchildren", "Ġunderstand", "Ġfriendly", "Ġherself", "Ġbooks", "Ġcontin", "Ġbug", "ross", "ĠAfter", "Ġarm", "air", "Ġbroken", "ĠBenny", "Ġclose", "Ġelse", "Ġforgot", "Ġmight", "Ġpre", "Ġcolors", "Ġdelicious", "Ġhill", "sp", "Ġhair", "ail", "lf", "asure", "Ġbuild", "aves", "Ġwants", "Ġgent", "Ġleaves", "Ġrel", "OK", "ield", "Ġarrived", "irre", "room", "Ġtight", "Ġgone", "irrel", "ash", "atter", "Ġsig", "Ġwonderful", "ĠNow", "ner", "av", "Ġable", "Ġsomeone", "Ġsong", "Then", "Ġgu", "ons", "Ġyes", "Ġcount", "Ġbaby", "set", "Ġsquirrel", "Ġfilled", "Ġcontinued", "ĠSally", "Ġbreak", "ich", "ee", "ĠThere", "Ġagreed", "ĠMaybe", "ĠDaisy", "Ġpoin", "Ġpink", "'ll", "From", "Ġscary", "Jack", "Ġcookies", "Ġgrandma", "Ġvis", "Ġju", "Ġfall", "ated", "Ġhungry", "man", "ĠEm", "Ġmorn", "Ġmoment", "ries", "row", "Ġenough", "Ġmakes", "icy", "Ġmorning", "Ġcastle", "Ġsmiles", "Ġturned", "Ġfight", "Ġfinally", "Ġgetting", "Ġcream", "Ġstayed", "Ġsometimes", "Ġwet", "app", "ĠK", "ey", "Ġbeach", "Ġcomp", "oup", "Ġothers", "ĠTommy", "ama", "ĠThis", "Ġmet", "Ġtrying", "Ġpictures", "rot", "This", "Ġmus", "ĠWhat", "Ġlistened", "Ġtail", "Ġdinner", "Ġclimbed", "Ġclot", "Ġclothes", "Ġamazing", "Ġmother", "Ġpuppy", "apped", "At", "Ġfew", "Ġtalk", "Ġperfect", "ance", "Ġballoon", "ence", "ĠBilly", "Ġasks", "Ġfur", "Ġdaddy", "red", "oring", "uffy", "Ġmar", "Ok", "Ġpet", "ctor", "Ġalone", "Ġwhite", "Ġsit", "amp", "Ġspl", "ĠGra", "Oh", "Ġpol", "wl", "ister", "Ġsear", "Ġgrow", "Ġwasn", "Ġpulled", "Ġbrought", "Ġeverything", "ĠJen", "Ġride", "oral", "Ġstrange", "Ġpie", "ott", "der", "Ġwaited", "ĠTo", "Ġdanc", "Ġspark", "Ġjoy", "Ġwoods", "Ġwon", "Ġdanger", "Ġhide", "Ġplan", "Ġfre", "Ġruns", "Ġvisit", "Ġdeep", "Maybe", "Ġmusic", "Ġamazed", "Ġleave", "zz", "Ġpat", "Ġthinks", "Ġdrag", "Ġtowards", "Ġliving", "eter", "Ġcloud", "ang", "Ġshap", "Ġteddy", "Ġflying", "ever", "When", "Okay", "ames", "Ġsilly", "Ġowner", "os", "Ġpi", "Max", "thy", "ope", "Ġpa", "ssed", "Ġem", "ower", "Ġfield", "ises", "Ġpen", "Ġlake", "Ġmoney", "Ġgrate", "Ġshared", "Ġland", "igg", "Ġparty", "Ġqui", "ained", "Ġside", "Ġpaint", "Ġsister", "Ġpromised", "unch", "Ġrace", "Ġfaster", "cle", "Ġbroke", "Ġjob", "Ġgrateful", "Ġmoral", "Ġcandy", "come", "avy", "ire", "Ġthis", "eces", "Ġtreasure", "ĠAmy", "Ġpieces", "Ġbott", "Ġbelie", "Ġdolls", "sw", "Ġworried", "Ġdance", "Ġele", "Ġquiet", "Ġansw", "ling", "Ġmum", "ugg", "Ġmust", "Ġbran", "Ġve", "Ġcup", "Ġcolorful", "ph", "uit", "Ġwel", "Ġblank", "outh", "Ġgif", "Ġslowly", "ol", "Ġbigger", "Ġmouth", "ze", "Ġbar", "Ġreach", "Ġblack", "ually", "Ġsnack", "Ġsmart", "Ġplant", "ased", "Ġblanket", "Ġscream", "Ġbike", "Ġseem", "gg", "Sure", "Ġsuch", "Ġeverywhere", "fort", "Ġpro", "me", "Ġriver", "Ġje", "less", "Ġwin", "Ġdangerous", "Ġpot", "ĠFl", "ix", "Ġthrew", "Ġhelping", "Ġdirty", "Ġprincess", "Ġstu", "orm", "Ġhoped", "Ġcarrot", "Ġcrying", "Ġnap", "ature", "Ġsign", "Ġmonke", "Ġmonkey", "Ġmonster", "oom", "ear", "Ġdoctor", "ident", "ose", "Ġtwins", "Ġmagical", "Ġwords", "Ġdragon", "ored", "Ġbite", "Ġacc", "Ġtower", "Ġheavy", "Ġmost", "Ġspr", "de", "Ġbee", "Ġsame", "Mia", "Ġheal", "Ġteac", "ats", "Hi", "Ġacross", "Why", "af", "bble", "Ġfruit", "ĠMo", "Ġstepped", "Ġdisapp", "ĠJill", "chool", "Ġbuck", "Ġstuck", "Ġbath", "Ġclosed", "eared", "ĠDaddy", "Ġwouldn", "Ġstre", "Ġfarmer", "Ġcoll", "Ġcour", "Ġbutt", "Ġmix", "ĠMr", "Ġtown", "Ġheart", "Ġfeels", "TMt", "Ġeating", "Ġatt", "Ġbelieve", "Ġschool", "Ġchair", "Ġcray", "Ġteacher", "Ġcourse", "Ġpack", "Ġbrown", "Ġsail", "Ġhit", "Ġpushed", "ĠMolly", "Ġswings", "Ġyard", "Ġgentle", "issed", "Ġsmo", "Ġwithout", "orrow", "Ġaccident", "umb", "Ġmin", "ts", "Ġjoin", "Ġwelcome", "iant", "br", "Ġclapped", "Ġturns", "Ġgames", "igher", "Ġtoday", "ier", "Ġstand", "vel", "ors", "ĠAll", "Ġfairy", "Ġhigher", "Ġben", "Ġnoises", "ipp", "Ġdry", "Ġneigh", "ourn", "Ġpocket", "Ġce", "Fin", "Ġdrove", "Ġpers", "Ġsuddenly", "Ġjourn", "Ġneighb", "ventually", "Ġpiece", "Ġhugs", "phant", "cy", "Ġcheered", "Ġforget", "Ġlon", "ract", "Ġneck", "Ġfree", "Ġluck", "Ġfence", "ho", "Ġwings", "Ġlonely", "ives", "Ġexplained", "Ġcorn", "Ġelephant", "Ġstories", "Ġupset", "Ġsang", "Ġlate", "Ġsea", "itting", "Ġlunch", "Ġshoes", "ible", "Ġstars", "ste", "Ġwhe", "Ġalong", "Ġsoup", "Ġlonger", "Ġmiss", "stead", "Ġcaught", "cret", "Ġtrou", "ches", "Ġmat", "Ġsecret", "Ġstar", "Finally", "Ġadventures", "Ġyoung", "Ġshook", "ows", "Ġjar", "ape", "Ġwish", "Ġrocks", "oun", "ign", "Ġmoved", "Ġdropped", "ment", "Ġbucket", "Ġsinging", "Ġapple", "ung", "ĠThank", "Ġpast", "Ġowl", "Ġpurp", "Ġbring", "Ġmine", "Do", "Ġbacky", "Ġbackyard", "Ġorange", "Ġdist", "Ġplac", "Ġdrink", "Ġtom", "ĠGrandma", "aughty", "Ġexp", "Ġnaughty", "fused", "Ġbelong", "Ġjuice", "Ġcho", "ĠMary", "Ġstreet", "Ġtaking", "ĠFluffy", "Ġshapes", "Ġkey", "bby", "Ġtakes", "Ġnothing", "ek", "ountain", "Ġexploring", "Ġnose", "Ġshop", "Ġpurple", "ush", "ĠEmma", "Ġwise", "ward", "Ġnearby", "Ġresp", "Ġbench", "Ġaf", "ord", "Ġdes", "col", "Ġwondered", "ces", "Ġes", "Ġwoke", "Ġsounds", "Ġcomes", "Ġbusy", "Ġmad", "Ġsick", "Ġseemed", "Ġinv", "iting", "Ġthough", "Ġrelie", "Ġholding", "ions", "Ġyear", "Ġtiny", "ittens", "fish", "Ġpig", "Ġ3", "Ġnest", "Ġarms", "Ġmil", "Ġsitting", "aughter", "thday", "raid", "ĠO", "uch", "Ġtouch", "Ġcir", "alm", "Ġafraid", "Ġmail", "Ġrainb", "Ġmark", "Ġob", "Ġkno", "to", "Ġbranch", "Ġdriver", "ale", "Ġround", "Ġswimm", "Ġcute", "Ġfit", "ity", "eth", "Ġpatient", "Ġcarry", "ĠInside", "Ġkite", "Ġpeace", "Ġhell", "Ġhello", "Ġboun", "ĠCome", "Ġdaughter", "Ġforever", "Ġlift", "rest", "Ġking", "idge", "uched", "Ġtouched", "Ġbread", "Ġband", "Ġhuge", "let", "Ġbirthday", "Ġswimming", "Ġpromise", "Ġaccidentally", "Hey", "ours", "Ġwra", "Ġrelieved", "ced", "gs", "Ġhope", "board", "Ġletter", "Ġputs", "pping", "Ġspoon", "Ġgives", "Ġgigg", "Ġmilk", "Ġfing", "Ġkick", "Ġchees", "shine", "Ġwhist", "Ġspin", "Ġbottle", "Ġcreature", "Ġfan", "Ġcover", "Ġdays", "erest", "Ġmist", "Ġcheese", "Ġact", "Ġcozy", "ĠTw", "Ġonto", "Ġlife", "Later", "Ġinterest", "ĠSammy", "Ġjourney", "Ġsunny", "Ġlaughing", "Ġcollect", "Ġant", "sy", "Ġsunshine", "Ġexciting", "Ġlucky", "Ġpower", "ped", "Ġret", "els", "Ġinstead", "Ġimag", "ining", "Ġbush", "Ġcomfort", "Ġdisco", "oman", "Ġrainbow", "Ġear", "Ġwoman", "Ġcave", "ness", "Ġmean", "Ġcou", "arp", "Ġsearched", "Ġbought", "Ġpointed", "Ġsmiling", "Ġinc", "Ġspo", "ten", "Ġreturn", "Tommy", "Ġsharp", "Ġpudd", "itch", "Ġeas", "Ġroad", "ĠMama", "ĠSoon", "Ġlater", "Ġwatching", "ize", "og", "Ġph", "Ġgather", "Ġtalked", "Ġsandw", "Ġhoney", "Ġanyone", "Ġsuc", "Ġegg", "ball", "ask", "asket", "Ġbasket", "Ġtreat", "Ġplane", "Ġtasty", "blem", "Ġproblem", "Ġhealthy", "Ġstorm", "Ġtrouble", "Ġducks", "Ġbutton", "Ġpop", "Good", "Ġkiss", "Ġmach", "Ġcrayons", "Ġpile", "Ġpar", "Ġzoom", "round", "Ġrope", "Ġmeet", "Ġsmelled", "Ġsnowman", "Ġapples", "Ġclever", "Ġspid", "Ġclouds", "Ġshining", "Ġloves", "amed", "Ġcalm", "Ġdi", "mer", "Bob", "Ġpres", "Ġent", "Ġperson", "itten", "Ġinteresting", "Ġres", "Ġzoo", "Ġrespect", "Ġwide", "Ġcard", "Ġmatter", "ĠTweet", "ndp", "Ġcreat", "orse", "Ġsur", "Ġorgan", "Ġscreamed", "ert", "up", "Ġfeather", "Ġbark", "Ġhon", "Ġadm", "ĠSomet", "Ġmud", "Ġap", "Ġeag", "ĠEll", "Ġpract", "Ġquest", "Ġfron", "Ġfront", "Ġanswer", "Ġpuzz", "eb", "epend", "ĠWith", "Ġprot", "Ġteeth", "Ġpill", "Ġgoes", "Ġsnake", "Ġhorse", "Ġasleep", "Ġtrip", "Ġforgive", "Ġprotect", "Ġshr", "ub", "ery", "Ġteach", "erly", "Ġpath", "aur", "Ġpresent", "Lucy", "Ġsaf", "œI", "Ġappeared", "Ġdanced", "Ġtries", "Ġvill", "Ġneighbor", "ĠMittens", "Ġspotted", "Ġval", "Ġgiant", "oose", "Ġca", "Ġwearing", "Ġmyster", "Ġwild", "Ġslid", "Mo", "St", "ching", "Ġwhich", "Ġwhole", "Ġlovely", "Just", "Ġplaces", "Ġgently", "Ġphone", "ĠJimmy", "isa", "Ġthin", "itty", "ex", "Ġworm", "Ġtasted", "Ġdirt", "ĠHow", "Ġfaces", "ndpa", "Ġdiscover", "Ġmachine", "ones", "ular", "Ġminut", "Ġash", "Ġconfused", "Ġimpre", "Ġrude", "cean", "Ġocean", "Ġpass", "Ġpretended", "Ġmind", "Every", "Ġsplas", "Ġsupp", "Ġcoin", "Ġpan", "Ġwave", "Ġcouch", "Ġfeet", "Ġtun", "Ġtomorrow", "com", "Molly", "Ġdrive", "hile", "Ġser", "Ġspent", "Ġchick", "Ġcorner", "Ġcookie", "Ġsal", "Ġmed", "Ġwip", "izz", "Ġspider", "Ġpicn", "Ġleaf", "Ġpicnic", "Ġsmooth", "Ġchocol", "Ġemb", "Ġign", "Ġlay", "Ġfurry", "Ġcart", "Ġhiding", "Ġlad", "Ġbugs", "Ġshir", "umber", "Ġlast", "Ġoven", "Ġwrite", "Ġbuilding", "Ġring", "Ġpush", "Ġtid", "Ġsel", "Ġneckl", "Ġhelpful", "Ġknee", "read", "als", "Ġtool", "Ġdelight", "Ġbubble", "Ġtalking", "Ġpaw", "Ġfoot", "Ġcann", "arra", "ĠEmily", "Ġfold", "Ġstret", "Ġblew", "Ġchased", "Ġfighting", "Ġmaybe", "Ġremind", "Ġembarra", "ife", "Ġshy", "ĠCh", "arm", "ucky", "Ġcannot", "ĠSometimes", "Ġspread", "ato", "Ġfinish", "Ġsongs", "Ġnet", "Ġlar", "Ġladder", "Ġrep", "Ġwore", "Ġwaiting", "anan", "Ġchocolate", "unk", "Ġeventually", "Ġmountain", "Ġspray", "Ġpool", "Ġselfish", "lex", "Ġsol", "Ġpuddle", "Ġbarked", "ult", "Ġba", "Ġtaste", "ĠJust", "Soon", "Ġbanan", "bot", "Ġrobot", "Ġcoo", "Ġwash", "Ġwhenever", "Ġcross", "Ġcreative", "My", "Ġcloth", "Ġpeaceful", "Ġlarge", "Ġstring", "ĠSt", "Ġstone", "Ġtidy", "Ġmoon", "ĠJenny", "Ġscar", "Ġplate", "ĠPlease", "Ġknocked", "Ġnecklace", "umpy", "lebr", "ator", "ungle", "oph", "Ġcelebr", "box", "iger", "Please", "ĠEverywhere", "elly", "Ġstep", "Ġjungle", "Ġgen", "Ġstir", "Ġtells", "Ġcarrots", "Ġmissed", "Ġtrust", "Ġshirt", "Ġembarrassed", "Ġhears", "getable", "urse", "Ġshelf", "Ġvillage", "Ġrocket", "Ġtreats", "ĠJim", "Ġvegetable", "Ġhum", "Ġstra", "Ġdecor", "Ġbat", "ĠSome", "Ġsticks", "airs", "Ġ'", "per", "mo", "Ġtop", "xed", "Ġfixed", "ĠAl", "ĠTheir", "Ġwhis", "ĠJake", "Ġcolour", "Ġcrab", "Ġhel", "Ġsharing", "Ġforward", "eak", "Ġspicy", "nny", "Ġgray", "Ġgun", "inted", "Ġwhistle", "Ġemp", "Ġsave", "dge", "Ġjumping", "Ġempty", "Ġlegs", "Ġnods", "Mama", "Ġlanded", "ĠTV", "Ġtightly", "Ġgrew", "Ġashamed", "Ġjew", "Ġple", "ird", "most", "Ġsplash", "ano", "Ġdeter", "Ġseed", "Ġnut", "Ġhonest", "Ġber", "Ġseek", "Ġunderstood", "Ġalmost", "Ġdeterm", "Ġpay", "Ġdisappo", "Ġgener", "Ġmead", "Ġmeant", "ĠWhy", "Ġstood", "lo", "Ġthese", "Ġcarried", "Ġpolice", "Ġbal", "Ġglow", "Ġbreath", "ned", "Ġhappen", "Ġshore", "spit", "dle", "Ġhospit", "Ġvan", "Ġgold", "Ġyelled", "ĠOn", "To", "ground", "Ġhospital", "Ġdrew", "Sarah", "ĠDon", "Ġline", "Ġlem", "ĠLisa", "Ġbored", "Ġgas", "Stop", "ĠTeddy", "Ġscre", "Ġsheep", "Ġmeadow", "vous", "iff", "Ġsnacks", "Ġfear", "Ġsuccess", "Ġdisappointed", "Ġclass", "Ġpuzzle", "Ġscarf", "Ġkitten", "Ġgroup", "Ġshell", "Ġcries", "Ġhidd", "Ġhidden", "Ġbedroom", "Ġwaves", "Ġug", "Ġburn", "Ġfeed", "Ġhours", "Ġplants", "Ġav", "Ġfancy", "ustr", "ian", "ĠLil", "ĠLila", "Where", "Ġcirc", "Ġsparkly", "Ġugly", "Ġmessy", "Ġtest", "Ġeasy", "wor", "ĠZ", "Ġsandwich", "Ġship", "Ġsleepy", "Ġtick", "Ġgenerous", "Ġsighed", "pill", "ony", "Ġjelly", "Ġcrown", "Ġstanding", "Ġvase", "There", "cer", "hin", "Ġpoor", "Ġpizz", "Ġner", "Ġknowing", "Ġpowerful", "Ġglass", "ĠEven", "Ġtaught", "erpill", "Ġcaterpill", "Ġkissed", "Ġfrustr", "Ġpir", "arl", "Ġreturned", "Ġtent", "Ġpri", "ĠTogether", "Ġprince", "Ġnervous", "Ġtears", "Ġcloset", "Ġpolite", "kin", "lower", "Ġyourself", "Ġmot", "Ġpin", "Ġsold", "oof", "'d", "Ġclown", "Ġchew", "Ġthankful", "ĠRex", "assed", "ensive", "Ġpassed", "body", "Ġsco", "obby", "Ġexpensive", "Ġpizza", "Ġwolf", "Ġboring", "Ġgrumpy", "ina", "Ġdrop", "Ġflag", "Ġdeer", "Ġtwirl", "Ġcaterpillar", "Ġpicks", "Ġfrustrated", "Ġgate", "Ġdetermined", "Ġhang", "Ġmysterious", "issors", "Ġfig", "Ġrad", "Ġfil", "Ġhur", "Ġdancing", "ets", "Ġwall", "Ġreg", "selves", "Ġchest", "Ġoften", "Ġexcite", "Ġscissors", "Ġgathered", "izzy", "Ġgets", "ates", "illed", "Ġminutes", "Ġrec", "la", "kay", "Ġokay", "ud", "In", "Be", "Ġmir", "Ġesc", "Ġscr", "iddle", "Ġbridge", "Ġpacked", "Ġworking", "lue", "Ġmistake", "Jane", "light", "ĠOK", "Ġwheel", "Ġhopping", "Ġcap", "ual", "ĠBr", "Ġque", "Ġanswered", "Ġsaved", "Ġdogs", "ĠPeter", "Ġvegetables", "ror", "Ġlit", "Ġbone", "Ġgiggled", "Ġexcitement", "Ġwander", "Ġcomfortable", "Ġflut", "Ġnumber", "Ġcand", "Ġspend", "mb", "Ġlose", "uce", "Who", "osaur", "Ġtrue", "Ġknight", "Ġdest", "ying", "Ġruined", "Ġmiddle", "Their", "Ġwis", "Ġroar", "Ġfruits", "Ġdrawing", "Ġlicked", "Ġsweetie", "Ġcrawl", "Ġtaken", "Ġwalks", "ots", "usie", "Ġones", "ecially", "Ġmummy", "Ġmedic", "Ġasking", "Ġtape", "Ġboss", "Ġdinosaur", "Ġstuff", "Me", "Ġdrum", "Ġadd", "Ġclap", "pecially", "Ġexam", "Ġsmelly", "Ġespecially", "Ġfake", "Ġfeathers", "Ġbrush", "Ġbathroom", "Ġchange", "Ġsight", "Ġmedicine", "iness", "Ġmirror", "ella", "Ġeggs", "Ġballs", "Ġdistance", "Ġstones", "Ġmatch", "Ġpray", "iving", "Ġglue", "Ġqueen", "Ġteam", "Ġcage", "Ġlying", "Ġmic", "ĠJohnny", "Ġlazy", "ĠIf", "Ġfis", "Ġtie", "Ġmoving", "Ġnoisy", "Ġbecome", "Ġok", "Ġyours", "Ġsplashed", "Ġcalling", "Ġlead", "Ġsoap", "Ġweak", "ha", "ĠBe", "Ġdecide", "Ġpleased", "ĠNo", "hip", "Ġbody", "Ġdrank", "Ġfluffy", "ating", "Hel", "Ġsailed", "Ġlemon", "Ġbake", "Ġshoot", "uggest", "Ġhu", "Ġmoms", "Ġplayground", "aged", "Ġsuggest", "Ġdisappeared", "alous", "Ġmeasure", "Ġhorn", "Ġjealous", "Ġcovered", "Help", "ĠBlue", "Ġshows", "Ġincred", "Ġquestions", "Ġfine", "Ġpillow", "Jimmy", "Ġjuicy", "Ġeld", "Ġtwist", "eed", "Ġpond", "Ġrelax", "Ġwrot", "Ġwrote", "rel", "cing", "ination", "Ġfather", "Ġcheck", "Ġjoke", "Ġword", "Ġed", "zed", "Ġrare", "Ġlamp", "Ġmap", "Ġneeds", "Ġcompet", "Ġhurts", "Ġmov", "wled", "Ġcontent", "Ġboys", "Ġcrawled", "umbled", "Ġcleaned", "Ġext", "ĠAt", "Ġcost", "Ġind", "Ġchicken", "Ġhappening", "Ġincredible", "Ġsell", "Ġfamous", "cil", "Ġpencil", "Ġtiger", "ĠEnd", "Ġorganized", "rag", "Ġjewel", "Ġbranches", "Ġtag", "fast", "Ġfrown", "Ġsil", "Ġrich", "Ġguess", "Ġborrow", "arage", "Ġlaughs", "iqu", "imed", "Ġgarage", "Sally", "Ġaw", "Ġfigure", "Ġmotor", "gu", "Ġdiff", "Ġbreakfast", "Ġdiffic", "Ġbubbles", "Billy", "ique", "Ġmod", "Ġunus", "Ġhose", "Ġoffered", "Ġbarn", "Ġextra", "Ġbanana", "Ġelderly", "Ġdish", "ĠKitty", "Ġdiscovered", "Ġloy", "Ġloyal", "Ġthick", "Ġunusual", "lies", "Ġchase", "asing", "Ġdifficult", "Ġcoins", "Ġonce", "Ġunique", "Ġsquee", "anged", "ĠSp", "ti", "Ġflash", "Spot", "Ġlouder", "Ġsword", "Ġrealised", "Ġwhale", "Well", "cept", "?\".", "Ġballoons", "Ġknife", "Ġhunt", "ately", "Ġgiving", "Ġshake", "Gra", "pper", "Ġtrucks", "Ġadventur", "Ġang", "Ġhero", "Ġturt", "Ġfool", "ages", "ĠBrown", "Ġtoug", "Sue", "Ġbald", "Ġberries", "Ġlifted", "Ġadded", "Ġkindness", "Ġbalance", "Ġbottom", "Ġcolourful", "Ġpointing", "Ġdreamed", "Ġspun", "Here", "Ġadventurous", "Ġbloom", "Ġhelps", "Ġfalls", "Ġshape", "How", "emo", "Ġears", "Ġdolp", "Ġsmoke", "olog", "Ġbirdie", "Ġweird", "head", "Ġstraw", "Ġwrapped", "ilt", "ĠMy", "keep", "Ġskin", "Ġchoose", "work", "ym", "ĠMark", "Ġboxes", "Ġcircle", "Ġdizzy", "Ġbrill", "Ġbrothers", "Ġharder", "ouses", "Ġdoll", "uggled", "Ġmighty", "Ġimpressed", "Ġapolog", "Ġcompetit", "Ġhats", "Ġcher", "ĠLittle", "Ġharm", "Ġgrown", "Ġbrilliant", "Amy", "Ġmanaged", "Ġwhisp", "ject", "Ġmeans", "Ġpump", "Ġscare", "Ġfright", "Ġtough", "Ġbatter", "Ġref", "Ġjack", "ready", "Ġdepend", "Ġedge", "Ġyog", "Ġfavour", "Ġsearch", "Ġenjoying", "Ġhouses", "aw", "Al", "Ġbuttons", "Ġloudly", "Ġgrace", "Ġalready", "Ġnorm", "Ġfoolish", "Ġbelonged", "Ġter", "ory", "iv", "apping", "Ġfavourite", "Ġfat", "Jen", "Ġagainst", "Ġmelt", "Ġcircles", "Ġrough", "Ġrecord", "Ġknows", "Ġfridge", "Ġshells", "Ġspace", "pes", "Ġsour", "Ġwake", "Ġisl", "Ġisland", "Mummy", "Ġclay", "Ġicy", "Ġgoat", "Ġlearning", "keeper", "ĠToday", "old", "Ġnormal", "lla", "Ġturtle", "Ġcab", "laimed", "Ġguit", "Ġvalu", "Ġsafely", "Ġnotice", "Ġwalls", "Ġlibr", "Ġsnee", "Ġcabin", "Ġhappiness", "Ġstri", "Ġcrack", "Ġexclaimed", "Ġpainting", "ĠSusie", "Ġbossy", "edient", "Ġbags", "Ġabo", "Ġtoast", "Ġfier", "Ġsaying", "Ġcudd", "corn", "Ġsounded", "Ġdreams", "Ġbitt", "bborn", "erful", "rage", "alk", "ites", "bs", "Ġcri", "Ġri", "Ġbitter", "Ġnosy", "Ġstubborn", "Ġcheerful", "ache", "ĠRose", "Ġmixed", "ado", "Ġroof", "Ġstrawber", "Ġterri", "Ġfierce", "sc", "oop", "Ġaccept", "Ġshad", "Ġwiped", "Ġdependable", "Ġstudy", "Ġcam", "era", "Ġescape", "amo", "Ġfrightened", "Ġshark", "Ġcrayon", "Ġcop", "Ġdead", "ĠEllie", "ext", "Ġproudly", "Ġspoiled", "Ġnicely", "Ġobedient", "Ġstove", "wards", "arth", "Ġbushes", "iable", "Ġcounted", "Ġeng", "Ġguitar", "Ġshowing", "Ġtunn", "irp", "Ġfrag", "Ġoffice", "Ġstumbled", "Ġtimes", "cient", "Ġjam", "ention", "Ġstronger", "Ġlights", "Ġinvited", "Ġpopcorn", "Ġsmaller", "Ġspinning", "ĠBobby", "Ġfingers", "Ġjoined", "Ġweal", "Ġunk", "owing", "amond", "Ġsuggested", "Ġuseful", "Ġdelicate", "Ġrose", "Ġvaluable", "Ġtools", "Ġtrunk", "Ġkicked", "aul", "Ġdiamond", "ĠElla", "Ġindepend", "Ġrode", "Ġthemselves", "Ġancient", "Ġcity", "Ġparrot", "Ġexcitedly", "Ġreliable", "Ġcleaning", "Ġexplored", "Ġthoughtful", "Ġtummy", "Ġlocked", "Ġabove", "Ġdough", "Ġzip", "Ġbeak", "Ġsolve", "ress", "imp", "ĠNemo", "ĠDan", "arry", "Ġcostum", "Ġholds", "orge", "Ġfountain", "Ġfragile", "Ġmovie", "Ġresc", "Ġstream", "Ġunlo", "na", "ĠFin", "ĠFinally", "Ġscrat", "ĠMrs", "Ġmagn", "nown", "Ġkinds", "Ġusing", "Ġwhispered", "Ġow", "ĠYour", "Ġmem", "Ġbuilt", "Ġhalf", "uth", "Ġindependent", "Ġyarn", "ses", "Ġdove", "œLet", "Ġgem", "Ġtank", "Ġways", "ray", "ipe", "roco", "Ġsniff", "Ġpil", "Ġboats", "Ġtele", "Ġgrandpa", "Ġorig", "Ġpractice", "Ġseeds", "Ġtwig", "Ġreminded", "Ġbrightly", "Ġunknown", "inal", "Ġbounce", "anut", "ĠDucky", "Ġdesign", "ither", "Ġsteal", "Ġsuccessful", "ola", "Ġguard", "Ġserious", "Ġjolly", "Ġcheap", "Ġcone", "Ġsunf", "Ġadmired", "Ġenorm", "Ġenormous", "rocod", "Ġcamera", "Ġoriginal", "Ġpainted", "Ġlab", "ĠFred", "Ġhoop", "Ġflashlight", "Ġwashed", "med", "uring", "Ġacorn", "Ġmarble", "Ġpost", "Ġbrace", "Ġclum", "umbers", "Ġswe", "eorge", "under", "Ġchanged", "Ġbarber", "Ġhelm", "ipop", "llipop", "ĠU", "pack", "unt", "Ġaunt", "Ġbees", "Ġpumpkin", "Ġthirst", "Ġperform", "Ġdelighted", "Ġengine", "Ġarrow", "Ġclock", "Ġdust", "Ġstup", "Ġstupid", "Ġstairs", "Ġdoesn", "Ġtor", "Ġbean", "Ġcrocod", "Ġenvel", "Ġshone", "inary", "Ġord", "vice", "Ġchose", "Ġyet", "ines", "Ġplayful", "Ġwealthy", "ĠAlice", "Ġfinding", "Ġlollipop", "Ġenc", "Ġdolphin", "Ġrubb", "Ġdull", "Ġopens", "Ġcompass", "Ġforth", "See", "Ġsleeping", "Ġstops", "oomy", "Ġflute", "Ġpeanut", "ugged", "ience", "Ġrubbed", "Ġstamp", "Ġangel", "Ġfresh", "atue", "Ġclumsy", "Ġraced", "Ġterrible", "!\".", "Ġdestro", "Ġthirsty", "Ġtowers", "Ġpirate", "Ġtelling", "Ġmoder", "Ġpotato", "Ġsalad", "dom", "Ġcrane", "Ġjacket", "Ġhairy", "Ġmole", "ict", "iew", "Ġnumbers", "illa", "ĠKim", "mmer", "Ġdreaming", "Ġhammer", "Ġsink", "eked", "Ġhanded", "Ġfriendship", "Ġpant", "gest", "time", "ĠBobo", "Ġmis", "Ġsearching", "Ġpebble", "Ġthose", "Ġpicking", "ĠWhenever", "Ġstatue", "Ġhay", "Ġtomato", "Ġview", "Ġing", "Ġdriving", "Ġnature", "ations", "Ġending", "Ġtooth", "Ġstage", "Ġbiggest", "Ġcareless", "Ġpeeked", "redient", "Ġingredient", "Ġmodern", "Ġtem", "Ġshocked", "Ġgraceful", "Ġslides", "Ġspilled", "het", "Ġpopular", "io", "ĠTweety", "Ġcomput", "Ġflex", "Ġimpress", "Ġthunder", "While", "ĠBella", "Ġprint", "Ġprep", "Ġcompassion", "Ġdesk", "Ġmissing", "iding", "Ġwaff", "By", "mbre", "Ġpengu", "Ġsauce", "Ġshiver", "Ġumbre", "Ġprize", "ĠMar", "ĠWhile", "Ġcarrying", "aghet", "aghetti", "Ġweek", "Ġdeliver", "ĠDave", "Ġearly", "Ġgasped", "Ġmel", "Ġavo", "Ġpiano", "Ġtruth", "ĠSn", "Ġregular", "robe", "Ġtunnel", "Ġcere", "Ġcrazy", "Ġwing", "Ġliz", "Ġreward", "Ġscatter", "Ġparade", "Ġpersist", "Ġmeal", "Ġrug", "Ġwheels", "fa", "Ġspaghetti", "Ġflexible", "Ġload", "Ġpige", "Ġsquare", "ĠMike", "Ġnurse", "Ġadvice", "Ġgoose", "ement", "Ġcur", "Ġcrocodile", "Ġearth", "Ġjumps", "Ġstack", "Ġsurf", "Ġpatter", "Ġspring", "Ġenvelope", "Ġtorn", "Ġtrash", "ision", "Ġimagined", "Ġuncle", "Ġwindows", "Ġwire", "Ġscale", "Ġstickers", "Ġingredients", "Ġtied", "Ġbracelet", "Ġpattern", "Ġcreate", "Ġspoke", "Ġcharm", "Ġthinking", "Ġwitch", "Ġcomb", "Ġtravel", "ĠPe", "ellig", "host", "ĠLook", "Ġharmless", "Ġahead", "Ġbull", "Ġintellig", "Ġgrowing", "Ġquestion", "Ġwarned", "Ġcereal", "Ġhipp", "Ġimpressive", "Ġperm", "œWhat", "Ġbent", "Ġcomputer", "Ġdestroy", "aid", "Ġbeauty", "Ġorder", "ĠHere", "Ġenv", "Ġcounting", "Ġcelebrate", "œYes", "Ġcricket", "Ġmailbox", "Ġsorts", "Ġsparkled", "Ġghost", "uddy", "Ġmush", "Ġsunflower", "comfort", "Ġpup", "Ġmushroom", "Ġenth", "Ġhumble", "aches", "iches", "Ġbutterflies", "Ġlibrary", "œLetâ", "Ġcomplet", "cut", "Ġcooking", "Ġdug", "Ġlizard", "Ġobject", "Ġpenny", "coa", "comfortable", "ĠGrandpa", "Ġenthus", "Ġpatch", "œIt", "ebra", "Ġnames", "Ġuncomfortable", "Ġsadly", "ĠFr", "Ġcompetitive", "orant", "Ġbadly", "Ġhook", "illie", "Ġumbrella", "Ġpersistent", "Ġbeep", "Ġgloomy", "Ġot", "Ġcouldnâ", "Ġtur", "key", "Ġmill", "Ġreading", "ikes", "Ġotter", "ophie", "ĠGive", "Ġtrap", "Ġsofa", "ĠToby", "Ġrules", "Ġphot", "Ġscreen", "Ġsnuggled", "Ġcharming", "ices", "Ġflour", "Ġignorant", "Ġuniver", "Ġzebra", "Ġleash", "Ġolder", "Ġhunter", "Ġplaced", "gust", "Ġgir", "Ġcamp", "Ġhung", "Ġrefused", "Ġalert", "Ġanx", "Ġsett", "ief", "Ġdisgust", "Ġpants", "ĠBear", "Ġnail", "Ġscoot", "Ġmay", "Ġcocoa", "Ġsandwiches", "Re", "Ġencou", "Ġpretending", "Ġshine", "Ġspeed", "Ġshut", "addy", "Ġgrand", "iven", "Ġcollar", "Ġcupboard", "Ġturkey", "Ġvalue", "Ġintelligent", "Ġtwirled", "Ġanxious", "Ġpony", "Ġchasing", "Ġgifted", "ceed", "Ġstarts", "Ġordinary", "ĠMummy", "Ġpurse", "Ġbase", "Ġanywhere", "Ġchance", "Ġneat", "Ġled", "Ġshouts", "Ġcurt", "Mary", "nnie", "Ġcreatures", "Ġnuts", "isk", "Ġcartoon", "Ġcurtain", "Ġhippo", "Ġsuper", "Ġattract", "Ġdeaf", "ĠAre", "ĠSh", "gy", "Ġpepper", "Ġskip", "used", "bled", "Ġpasta", "Ġsoldier", "az", "ubby", "Ġcase", "Ġblueber", "Ġsend", "Ġcards", "Ġletters", "Ġshaking", "Ġgor", "ĠPat", "Ġbandage", "vely", "Ġvol", "cream", "Ġtrick", "Ġcompassionate", "Ġtrump", "stri", "Ġsticker", "Ġfu", "Ġresist", "aff", "ĠWh", "Ġcarp", "Ġhurry", "Jim", "Ġfearful", "Ġpulls", "Ġbounced", "Ġclub", "Ġdisgusting", "Ġbrighter", "Ġdecorate", "Ġtriang", "Ġstretched", "ctop", "ctopus", "Ġbicy", "Ġpressed", "Ġattic", "erable", "Ġcompl", "Ġsquash", "Ġlively", "ĠBrownie", "Ġitself", "Bye", "Ġcourage", "Ġpracticed", "iest", "Ġcheer", "Ġsucceed", "Ġhelmet", "Ġmug", "cano", "Ġchubby", "icop", "icopter", "Ġcows", "Ġfilthy", "Ġmelon", "Ġmiserable", "Ġoctopus", "Ġsupport", "Ġradio", "Ġmeas", "ured", "ĠLee", "Ġdrawer", "Ġten", "Ġpigeon", "Ġdistur", "Ġbet", "een", "Ġfour", "Ġdess", "Ġbarking", "Ġhelicopter", "htub", "Ġgrabs", "Ġtrumpet", "Ġjeep", "Ġbathtub", "Ġlions", "Ġdisturb", "Ġener", "Ġcryst", "Ġpoem", "Ġbarrel", "Ġrepe", "Ġpaws", "Ġanyway", "Ġattractive", "Ġhelpless", "Ġimpat", "Ġsalt", "Benny", "ĠMandy", "Ġcarpet", "Ġlid", "Ġvolcano", "ĠEventually", "ophone", "Ġmonkeys", "Ġsplit", "Ġtray", "Ġhaircut", "œThat", "ĠJoey", "Ġbackpack", "aurant", "Ġrestless", "Ġthread", "Ġenvious", "Ġcomet", "Ġgiggle", "Ġgorilla", "Alice", "ummer", "Ġrestaurant", "gn", "noon", "Ġafternoon", "Ġcooked", "ĠRo", "lling", "Ġsandbox", "strich", "Ġimpatient", "ĠWhere", "Ġmask", "Ġspell", "orable", "Ġpackage", "Ġsteps", "Ġallig", "Ġnobody", "Ġwishes", "enry", "Ġpun", "Ġcats", "Ġsomewhere", "astic", "night", "Ġnowhere", "Ġraven", "Ġcush", "Ġfive", "Ġzipp", "Ġbri", "Ġhars", "Ġrice", "Ġthief", "Ġreco", "Ġshoe", "iron", "Ġrespectful", "heart", "Ġvide", "ĠLola", "Ġadorable", "Ġfrowned", "Ġgoal", "Ġbicycle", "ccol", "llie", "ccoli", "Ġelev", "Ġfurther", "Ġlas", "Ġfinds", "Ġpand", "ĠPaul", "Ġpushes", "Ġharsh", "Ġseal", "Ġstretch", "Ġfort", "Ġsep", "Ġsepar", "Ġmath", "Ġdessert", "Ġbears", "Ġshield", "Ġmagnet", "ĠAlex", "Ġvine", "Ġelevator", "Ġquar", "lled", "Ġrolled", "Ġmicr", "Ġmuff", "Ġunpack", "Ġstirred", "Ġadmire", "Ġfireman", "Ġknock", "Ġlip", "Ġlightning", "stairs", "Ġholes", "Ġorganize", "Ġsle", "Ġtripped", "eras", "str", "Ġloop", "Ġribb", "Ġshadow", "Ġtire", "ĠEverything", "Ġmodest", "ebook", "elery", "gging", "Ġhappier", "Ġmeat", "Everyone", "cond", "stic", "Ġnotebook", "Ġtrains", "angar", "angaroo", "Ġdishes", "Ġexper", "Ġscrew", "Ġswinging", "Ġur", "Ġsent", "Ġsecond", "Ġstared", "ĠTweetie", "Ġcandle", "Ġdidnâ", "Ġwallet", "Ġlistening", "Ġdistant", "Ġostrich", "Ġdrawings", "Ġswitch", "Ġjokes", "Ġmicrophone", "Ġroared", "Ġleop", "Ġsize", "iastic", "Ġenthusiastic", "Ġbroccoli", "Ġscooter", "Ġavoc", "Ġtroubled", "mith", "Ġkangaroo", "Ġsheet", "eer", "Ġhive", "iskers", "Ġmama", "Ġol", "ĠGeorge", "Ġforgave", "arlie", "Ġslipp", "Ġimpro", "Ġquite", "Ġpaid", "Ġcardboard", "uct", "Ġchecked", "Ġobser", "Ġriding", "Ġinse", "Ġwheat", "ĠRed", "Ġcube", "Ġhedge", "Ġsilver", "Daisy", "Ġeras", "ĠBuddy", "Ġremo", "Ġsaus", "rec", "ĠJer", "Ġhuman", "Ġspeak", "ĠJerry", "ĠWould", "Ġraft", "Ġrescue", "Ġshakes", "Ġshovel", "Ġalive", "Ġcountry", "Ġsoftly", "cycle", "gie", "Ġshrimp", "Ġrecogn", "Ġcelery", "ĠSmith", "Ġalligator", "Ġbikes", "fee", "irit", "Ġhall", "Ġsummer", "hood", "Ġbrus", "Ġcostume", "year", "reci", "Daddy", "ffee", "Ġclapping", "Ġeither", "Ġmessage", "Ġprov", "ides", "Ġappreci", "Ġbehave", "Ġonion", "ĠBunny", "Ġstom", "ĠSnow", "Ġjudge", "Ġscold", "happy", "Ġink", "Ġzoomed", "lter", "Ġcrystal", "Ġtask", "olin", "Ġvi", "alace", "render", "Ġavail", "Ġbuzz", "Ġpalace", "Ġpor", "Ġsweater", "Ġsweetheart", "Ġpenguin", "Ġputting", "Ġtreasures", "Ġbreaks", "Ġpapers", "Ġpushing", "Ġshelter", "cast", "Ġfeelings", "Ġleopard", "Ġstarting", "Ġcact", "Ġmen", "Ġmarry", "Ġreind", "Ġvisited", "Ġjellyfish", "Ġyach", "Ġfalling", "Ġgolf", "Ġlaser", "Ġsandcast", "Ġgro", "aned", "Ġtax", "arnt", "Ġenergy", "Ġlearnt", "Ġmild", "Ġped", "Ġavailable", "ĠOr", "Ġpole", "Ġcolours", "Ġiron", "Ġboots", "Ġended", "bul", "ls", "arb", "Ġbasketball", "Ġhoping", "Ġtricks", "play", "Ġclimbing", "Ġshade", "agre", "Ġplanet", "Grandma", "ĠBet", "Ġgiven", "Ġgrapes", "erop", "eropl", "ait", "Ġaeropl", "Ġspirit", "Ġunhappy", "Ġflies", "Ġreindeer", "Ġsmells", "Ġpolish", "Ġbur", "Jenny", "Ġbarks", "ophy", "ĠCl", "Ġcactus", "Ġdisagre", "Ġeraser", "Ġfisher", "Ġframe", "Ġsprink", "affe", "Ġcable", "Ġpilot", "Ġshort", "Ġcoffee", "Ġyacht", "ef", "shed", "iflower", "Ġbin", "Ġcaul", "Ġchalk", "Ġquit", "Ġart", "Ġtaxi", "Ġpipe", "Ġraining", "ccer", "ndry", "undry", "Ġfootball", "Ġshopkeeper", "Ġtrophy", "ĠWhiskers", "Ġbul", "ges", "Ġdisplay", "Ġlaundry", "Ġdrops", "Ġkay", "aked", "Ġpeek", "Ġlend", "Ġoy", "Ġpress", "Ġsoccer", "Ġtriangle", "Ġvend", "Ġsym", "ric", "eze", "ecause", "Ġincl", "ĠSandy", "ĠTr", "Ġpanda", "Ġrubber", "Ġtuna", "Ġthrows", "owder", "Ġhadn", "aggie", "Ġairp", "Ġairport", "Ġdisc", "Ġunlock", "zzy", "ĠBu", "Ġmuse", "Ġmuseum", "Ġfolder", "Ġpowder", "Ġskill", "kelet", "Ġbananas", "Ġcauliflower", "Ġrolling", "Ġthanks", "aled", "Ġlie", "Ġmixer", "Ġsurrender", "Ġgiraffe", "mand", "Ġcounter", "Ġdive", "Ġinsect", "TMm", "Ġneighbour", "nam", "sely", "Ġcooler", "Ġimagine", "gen", "Ġtrail", "€“", "Ġcushion", "Ġviolin", "Ġplastic", "ĠGrace", "Ġfrogs", "Ġins", "Ġcord", "nger", "Ġambul", "Ġstuffed", "Ġwool", "spap", "Ġlives", "Ġmarched", "Ġsymbo", "..", "eks", "Ġpoints", "Ġapologized", "Ġfauc", "eath", "Ġnewspap", "Ġwife", "Ġleaned", "Ġwaving", "Ġphoto", "Ġstrawberry", "urch", "Ġclosely", "Ġcups", "Ġsoil", "Ġtheater", "ween", "Ġeagerly", "keleton", "Ġbelongs", "Ġbetween", "Ġcherries", "Ġevening", "Ġcomplete", "Ġdiary", "Ġshouldn", "icer", "Ġfisherman", "ĠSophie", "Ġimagination", "Ġpeach", "Ġporch", "ple", "Ġambulance", "Ġtub", "Ġmagaz", "mm", "Ġble", "Ġfaucet", "Ġlime", "Ġperfectly", "Ġvendor", "ĠAndy", "Ġax", "Ġforgotten", "Ġwipe", "Ġminute", "Ġrever", "Ġswung", "Ġinsist", "aces", "ĠRos", "Ġfields", "Ġsteak", "nament", "Ġcreated", "Ġpage", "Ġsir", "Ġwelcom", "Ġyogurt", "Ġattention", "hino", "Ġnovel", "lass", "Ġsung", "Ġmule", "izes", "Ġflame"], "merges": [["h", "e"], ["Ġ", "t"], ["Ġ", "a"], ["Ġ", "s"], ["Ġ", "w"], ["n", "d"], ["Ġt", "he"], ["e", "d"], ["Ġa", "nd"], ["Ġt", "o"], ["Ġ", "b"], ["i", "n"], ["Ġ", "h"], ["r", "e"], ["Ġw", "a"], ["o", "u"], ["Ġ", "f"], ["i", "t"], ["Ġ", "l"], ["Ġ", "c"], ["Ġ", "d"], ["e", "r"], ["Ġ", "he"], ["Ġ", "m"], ["Ġ", "p"], ["Ġwa", "s"], ["Ġ", "T"], ["o", "m"], ["a", "y"], ["Ġ", "o"], ["a", "r"], ["i", "s"], ["in", "g"], ["i", "l"], ["Ġ", "g"], ["i", "d"], ["a", "t"], ["e", "n"], ["Ġ", "n"], ["Ġs", "a"], ["Ġh", "a"], ["ĠT", "he"], ["Ġ", "S"], ["a", "n"], ["i", "m"], ["o", "r"], ["o", "n"], ["Ġ", "it"], ["Ġt", "h"], ["l", "l"], ["Ġ", "H"], ["l", "e"], ["o", "t"], ["Ġhe", "r"], ["e", "t"], ["i", "r"], ["ĠS", "he"], ["e", "s"], ["Ġ", "in"], ["v", "er"], ["ĠThe", "y"], ["u", "t"], ["o", "w"], ["c", "k"], ["Ġ", "e"], ["Ġ", "y"], ["Ġ", "u"], ["l", "d"], ["o", "o"], ["il", "y"], ["Ġsa", "id"], ["i", "g"], ["Ġ", "r"], ["Ġ", "\""], ["Ġb", "e"], ["a", "m"], ["Ġ", "I"], ["Ġs", "t"], ["k", "e"], ["c", "e"], ["v", "e"], ["it", "h"], ["L", "ily"], ["p", "p"], ["Ġs", "he"], ["Ġw", "ith"], ["O", "n"], ["Ġo", "n"], ["Ġy", "ou"], ["k", "ed"], ["r", "i"], ["Ġo", "f"], ["Ġp", "l"], ["n", "t"], ["Ġh", "is"], ["a", "d"], ["ĠH", "e"], ["Ġs", "o"], ["ver", "y"], ["Ġd", "ay"], ["Ġth", "at"], ["Ġ", "Lily"], ["Ġu", "p"], ["Ġpl", "ay"], ["Ġthe", "y"], ["Ġha", "d"], ["s", "t"], ["Ġw", "e"], ["Ġm", "om"], ["Ġ", "B"], ["Ġf", "or"], ["e", "l"], ["u", "n"], ["ou", "ld"], ["'", "s"], ["m", "y"], ["Ġl", "i"], ["T", "he"], ["c", "h"], ["Ġha", "pp"], ["Ġwa", "nt"], ["en", "t"], ["Ġs", "h"], ["it", "t"], ["ou", "t"], ["he", "r"], ["Ġn", "ot"], ["Ġd", "o"], ["om", "e"], ["s", "e"], ["Ġ", "very"], ["l", "y"], ["e", "nd"], ["a", "ll"], ["ou", "nd"], ["Ġw", "h"], ["Ġ", "k"], ["im", "e"], ["itt", "le"], ["Ġ", "M"], ["Ġt", "ime"], ["Ġl", "ittle"], ["a", "l"], ["Ġn", "e"], ["Ġthe", "re"], ["h", "t"], ["Ġ", "is"], ["Ġb", "ig"], ["Ġhapp", "y"], ["Ġ", "re"], ["ĠI", "t"], ["Ġs", "m"], ["Ġb", "ut"], ["Ġsa", "w"], ["Ġa", "n"], [".", "\""], ["r", "y"], ["r", "a"], ["ri", "end"], ["Ġf", "riend"], ["Ġa", "s"], ["On", "e"], ["id", "e"], ["a", "ck"], ["'", "t"], ["u", "g"], ["!", "\""], ["Ġl", "oo"], ["Ġwe", "re"], ["t", "er"], ["v", "ed"], ["Ġl", "o"], ["o", "re"], ["a", "ke"], ["On", "ce"], ["Ġs", "e"], ["Ġh", "im"], ["Ġg", "o"], ["Ġa", "re"], ["Ġ", "j"], ["Ġwant", "ed"], ["ar", "d"], ["Ġb", "o"], ["il", "l"], ["ir", "l"], ["Ġthe", "m"], ["Ġup", "on"], ["Ġg", "irl"], ["Ġthe", "ir"], ["Ġ", "out"], ["Ġa", "t"], ["u", "r"], ["e", "c"], ["Ġd", "id"], ["i", "nd"], ["w", "ay"], ["f", "u"], ["Ġ", "A"], ["Ġs", "p"], ["Ġc", "ould"], ["Ġha", "ve"], ["he", "n"], ["a", "in"], ["he", "d"], ["Ġto", "o"], ["ar", "t"], ["ĠB", "en"], ["r", "om"], ["Ġc", "an"], ["Ġw", "ent"], ["Ġe", "x"], ["i", "c"], ["Ġa", "r"], ["l", "p"], ["?", "\""], ["oo", "d"], ["Ġfriend", "s"], ["fu", "l"], ["Ġn", "am"], ["Ġ", "J"], ["Ġk", "n"], ["h", "ing"], ["ig", "ht"], ["Ġhe", "lp"], ["Ġs", "ay"], ["Ġa", "ll"], ["im", "my"], ["u", "m"], ["ar", "k"], ["on", "e"], ["Ġb", "ack"], ["ĠT", "om"], ["Ġf", "un"], ["Ġc", "l"], ["Ġn", "o"], ["a", "re"], ["Ġl", "e"], ["il", "ed"], ["o", "p"], ["Ġnam", "ed"], ["Ġs", "c"], ["Ġa", "l"], ["el", "t"], ["Ġm", "an"], ["Ġlo", "ved"], ["ou", "g"], ["Ġsm", "iled"], ["Ġ", "One"], ["Ġto", "y"], ["s", "ide"], ["Ġli", "ke"], ["i", "ck"], ["Ġf", "elt"], ["Ġas", "ked"], ["Ġse", "e"], ["Ġm", "e"], ["Ġf", "e"], ["Ġs", "ome"], ["Ġloo", "ked"], ["ĠT", "immy"], ["am", "e"], ["Ġr", "o"], ["Ġar", "ound"], ["Ġ", "W"], ["om", "et"], ["Ġb", "r"], ["u", "re"], ["Ġb", "ir"], ["g", "et"], ["i", "ce"], ["Ġw", "ould"], ["Ġbo", "y"], ["on", "g"], ["Ġst", "art"], ["a", "s"], ["Ġbir", "d"], ["Ġs", "omet"], ["Ġ", "Y"], ["Ġm", "ake"], ["ing", "s"], ["Ġa", "g"], ["ad", "e"], [",", "\""], ["Ġwh", "at"], ["ĠY", "ou"], ["Ġw", "or"], ["d", "d"], ["Ġsay", "s"], ["ĠB", "ut"], ["k", "ing"], ["Ġf", "a"], ["Ġr", "an"], ["ow", "n"], ["Ġa", "way"], ["get", "her"], ["Ġt", "re"], ["i", "e"], ["ar", "ed"], ["a", "g"], ["ou", "d"], ["Ġm", "ade"], ["Ġstart", "ed"], ["Ġc", "ar"], ["i", "f"], ["Ġto", "gether"], ["t", "her"], ["Ġp", "ark"], ["Ġc", "o"], ["Ġsomet", "hing"], ["Ġo", "ther"], ["it", "ed"], ["Ġne", "w"], ["Ġf", "rom"], ["Ġp", "ut"], ["Ġh", "ug"], ["oo", "k"], ["Ġag", "ain"], ["Ġp", "r"], ["e", "ll"], ["Ġ", "L"], ["b", "le"], ["a", "ch"], ["Ġex", "c"], ["Ġg", "ood"], ["Ġm", "u"], ["Ġh", "ome"], ["Ġl", "a"], ["s", "s"], ["ri", "ed"], ["Ġf", "l"], ["Ġw", "hen"], ["e", "p"], ["Ġwh", "o"], ["es", "t"], ["Ġc", "h"], ["Ġf", "ound"], ["Ġthe", "n"], ["Ġd", "ec"], ["pp", "ed"], ["Ġplay", "ing"], ["Ġg", "et"], ["Ġwa", "l"], ["q", "u"], ["n", "n"], ["oug", "ht"], ["Ġs", "w"], ["Ġli", "ked"], ["Ġth", "ings"], ["u", "ck"], ["p", "l"], ["Ġ", "E"], ["all", "y"], ["ou", "s"], ["Ġg", "ot"], ["r", "o"], ["Ġb", "l"], ["Ġexc", "ited"], ["ar", "a"], ["Ġdo", "g"], ["id", "ed"], ["Ġc", "ame"], ["Ġyou", "r"], ["ĠM", "om"], ["Ġe", "very"], ["Ġdec", "ided"], ["a", "x"], ["Ġ", "D"], ["a", "ve"], ["Ġsc", "ared"], ["ĠT", "im"], ["u", "st"], ["nn", "a"], ["Ġd", "own"], ["Ġon", "e"], ["il", "e"], ["Ġ", "v"], ["Ġc", "are"], ["ou", "se"], ["Ġf", "ind"], ["The", "y"], ["a", "p"], ["Ġbe", "c"], ["is", "t"], ["n", "y"], ["Ġth", "an"], ["u", "e"], ["ou", "r"], ["Ġfe", "el"], ["Ġm", "y"], ["Ġa", "b"], ["Ġw", "ill"], ["Ġd", "ad"], ["Ġg", "r"], ["er", "s"], ["ar", "n"], ["Ġg", "ra"], ["Ġdid", "n"], ["Ġ", "ke"], ["way", "s"], ["es", "s"], ["Ġsa", "d"], ["u", "s"], ["Ġtoo", "k"], ["Ġtoy", "s"], ["Ġp", "o"], ["f", "e"], ["nd", "er"], ["Ġab", "out"], ["Ġb", "all"], ["T", "h"], ["Ġal", "ways"], ["an", "t"], ["ĠS", "am"], ["Ġmom", "my"], ["Ġl", "ot"], ["Ġkn", "e"], ["b", "b"], ["Ġtre", "e"], ["is", "e"], ["Ġ", "F"], ["Ġout", "side"], ["Ġth", "ought"], ["Ġt", "a"], ["Ġle", "arn"], ["it", "e"], ["en", "ed"], ["Ġh", "o"], ["re", "t"], ["Ġm", "ore"], ["Ġkn", "ow"], ["c", "hed"], ["g", "ed"], ["ec", "i"], ["Ġs", "or"], ["Ġin", "t"], ["Ġc", "at"], ["Ġo", "ld"], ["Ġla", "ug"], ["Ġt", "ake"], ["i", "ve"], ["ĠM", "ax"], ["Ġkne", "w"], ["Ġsp", "eci"], ["Ġspeci", "al"], ["Ġan", "y"], ["Ġp", "e"], ["f", "ter"], ["Ġsor", "ry"], ["Ġh", "ow"], ["m", "a"], ["B", "ut"], ["u", "dd"], ["udd", "en"], ["Ġsh", "ow"], ["in", "k"], ["Ġt", "r"], ["is", "h"], ["Ġr", "un"], ["udden", "ly"], ["Ġs", "l"], ["Ġmu", "ch"], ["Ġha", "nd"], ["a", "nd"], ["Ġo", "r"], ["Ġt", "w"], ["Ġh", "ouse"], ["Ġo", "p"], ["Ġm", "o"], ["Ġt", "ried"], ["Ġs", "k"], ["Ġwa", "ter"], ["Ġs", "un"], ["h", "at"], ["an", "k"], ["Ġint", "o"], ["T", "om"], ["Ġto", "ld"], ["Ġin", "side"], ["ĠS", "ara"], ["Ġcl", "o"], ["um", "p"], ["Ġg", "ave"], ["t", "y"], ["Ġe", "at"], ["ĠW", "e"], ["Ġpr", "oud"], ["Ġ", "if"], ["Ġe", "ach"], ["Ġ", "qu"], ["Ġro", "om"], ["at", "e"], ["Ġo", "ver"], ["Ġ", "en"], ["Ġhe", "ard"], ["ĠA", "nna"], ["a", "ce"], ["u", "se"], ["Ġcould", "n"], ["Ġne", "ver"], ["Ġp", "ret"], ["ot", "her"], ["i", "a"], ["Ġplay", "ed"], ["a", "use"], ["d", "y"], ["M", "om"], ["a", "k"], ["i", "on"], ["Ġp", "ick"], ["b", "y"], ["ĠE", "very"], ["Ġhug", "ged"], ["et", "ter"], ["g", "e"], ["v", "en"], ["Ġex", "pl"], ["he", "re"], ["Ġg", "re"], ["Ġj", "ust"], ["Ġbo", "x"], ["Ġn", "ice"], ["Ġc", "om"], ["Ġman", "y"], ["Ġne", "ed"], ["ot", "h"], ["Ġwa", "t"], ["Ġst", "r"], ["Ġof", "f"], ["Ġbec", "ause"], ["s", "ed"], ["'", "m"], ["g", "ry"], ["Ġsm", "all"], ["i", "z"], ["v", "ing"], ["Ġb", "u"], ["Ġj", "o"], ["Ġf", "o"], ["Ġs", "n"], ["in", "e"], ["Ġl", "ong"], ["im", "al"], ["Ġan", "imal"], ["or", "t"], ["Ġt", "ry"], ["ur", "t"], ["Ġlearn", "ed"], ["u", "c"], ["oug", "h"], ["s", "el"], ["Ġu", "nt"], ["ĠM", "ia"], ["Ġlo", "ve"], ["il", "d"], ["ar", "s"], ["Ġunt", "il"], ["Ġk", "ind"], ["Ġb", "etter"], ["Ġfl", "ow"], ["ĠJ", "ack"], ["Ġ", "im"], ["ur", "n"], ["Ġt", "e"], ["Ġd", "on"], ["ĠA", "nd"], ["Ġc", "le"], ["Ġp", "u"], ["Ġe", "nd"], ["v", "es"], ["ad", "y"], ["Ġc", "all"], ["Ġb", "est"], ["Ġd", "re"], ["Ġcare", "ful"], ["a", "ut"], ["ur", "p"], ["Ġfa", "st"], ["k", "s"], ["Ġa", "d"], ["v", "ent"], ["Ġ", "C"], ["Ġg", "ard"], ["Ġgard", "en"], ["Ġf", "i"], ["ĠJ", "o"], ["b", "er"], ["Ġbe", "aut"], ["i", "es"], ["a", "se"], ["Ġb", "ra"], ["Ġsk", "y"], ["Ġj", "ump"], ["Ġl", "oud"], ["Ġthan", "ked"], ["e", "m"], ["Ġc", "he"], ["ĠH", "er"], ["Ġlaug", "hed"], ["Ġb", "y"], ["ĠS", "o"], ["f", "t"], ["Ġe", "ven"], ["p", "t"], ["I", "t"], ["sel", "f"], ["in", "y"], ["ll", "y"], ["Ġl", "ist"], ["Ġg", "l"], ["w", "n"], ["Ġh", "urt"], ["Ġc", "ome"], ["Ġh", "ard"], ["Ġst", "ill"], ["Ġbeaut", "i"], ["Ġanimal", "s"], ["Ġbeauti", "ful"], ["le", "w"], ["Ġf", "am"], ["Ġw", "o"], ["Ġwa", "y"], ["Ġlot", "s"], ["Ġu", "nder"], ["Ġr", "a"], ["b", "e"], ["Ġl", "et"], ["he", "s"], ["ec", "t"], ["ĠThe", "n"], ["Ġst", "ay"], ["c", "t"], ["Ġb", "ad"], ["ĠF", "rom"], ["Ġsa", "fe"], ["oo", "l"], ["Ġb", "oth"], ["Ġco", "l"], ["a", "st"], ["Ġc", "u"], ["op", "le"], ["Ġre", "m"], ["Ġan", "gry"], ["Ġb", "ook"], ["Ġli", "ved"], ["Ġim", "p"], ["Ġ", "â"], ["is", "hed"], ["Ġtw", "o"], ["Ġbra", "ve"], ["Ġsh", "ould"], ["N", "o"], ["Ġr", "ed"], ["Ġfam", "ily"], ["an", "e"], ["Ġpe", "ople"], ["urp", "r"], ["Ġwal", "ked"], ["Ġst", "or"], ["Ġsh", "are"], ["or", "n"], ["Ġs", "urpr"], ["ig", "h"], ["Ġf", "in"], ["ck", "s"], ["Ġf", "lew"], ["uc", "y"], ["Ġso", "on"], ["i", "p"], ["Ġd", "an"], ["Ġcall", "ed"], ["f", "ore"], ["Ġf", "ly"], ["l", "ed"], ["x", "t"], ["Ġc", "re"], ["B", "en"], ["Ġth", "re"], ["Ġp", "ic"], ["Ġcle", "an"], ["Ġpret", "ty"], ["dd", "ed"], ["Ġke", "pt"], ["Ġf", "ore"], ["is", "ed"], ["Ġdo", "or"], ["o", "b"], ["ĠW", "hen"], ["Ġ", "P"], ["Ġgo", "ing"], ["Ġsh", "iny"], ["Ġke", "ep"], ["Ġd", "ra"], ["Ġno", "ise"], ["Ġn", "ow"], ["Ġt", "urn"], ["Ġre", "al"], ["Ġop", "ened"], ["Ġw", "ind"], ["Ġc", "ry"], ["s", "o"], ["Ġ", "ide"], ["Ġbe", "fore"], ["ar", "y"], ["um", "my"], ["Ġc", "on"], ["Ġad", "vent"], ["Ġal", "so"], ["Ġst", "o"], ["Ġgr", "ound"], ["ag", "e"], ["le", "s"], ["i", "ed"], ["il", "ly"], ["Ġe", "y"], ["Ġcol", "or"], ["Ġexpl", "ore"], ["Ġide", "a"], ["W", "hat"], ["Ġf", "r"], ["Ġno", "dded"], ["Th", "at"], ["Ġf", "ar"], ["ay", "be"], ["Ġu", "n"], ["k", "es"], ["t", "ure"], ["Ġwa", "r"], ["t", "h"], ["H", "e"], ["Ġne", "xt"], ["Ġpick", "ed"], ["t", "hing"], ["o", "y"], ["Ġb", "ed"], ["Ġcl", "im"], ["T", "M"], ["Ġwh", "ile"], ["Ġclim", "b"], ["Ġb", "re"], ["Ġsm", "ile"], ["Ġth", "r"], ["Ġfeel", "ing"], ["ĠD", "ad"], ["Ġtr", "uck"], ["Ġwal", "king"], ["Th", "ank"], ["e", "et"], ["Ġw", "r"], ["ĠL", "ucy"], ["g", "er"], ["Ġpic", "ture"], ["Ġ", "G"], ["f", "f"], ["Ġadvent", "ure"], ["Ġg", "ive"], ["Ġf", "ood"], ["Ġth", "ink"], ["Ġt", "ra"], ["S", "o"], ["a", "c"], ["Ġbr", "o"], ["p", "ot"], ["Ġd", "if"], ["ic", "ed"], ["Ġlist", "en"], ["t", "ed"], ["j", "oy"], ["Ġwa", "it"], ["Ġey", "es"], ["i", "ous"], ["ug", "ht"], ["Ġa", "fter"], ["Ġsto", "pped"], ["Ġf", "ish"], ["Ġo", "wn"], ["Ġloo", "king"], ["Ġd", "el"], ["Ġflow", "ers"], ["t", "ing"], ["L", "et"], ["Ġre", "pl"], ["em", "ber"], ["Ġsh", "out"], ["Ġhe", "ad"], ["Ġhand", "s"], ["S", "he"], ["Ġbl", "o"], ["Ġsl", "ide"], ["iz", "ed"], ["Ġgre", "at"], ["Ġimp", "ort"], ["Ġbl", "ue"], ["Ġe", "ver"], ["Ġv", "o"], ["ir", "st"], ["Ġen", "joy"], ["a", "ble"], ["Ġu", "s"], ["S", "uddenly"], ["ĠS", "uddenly"], ["Ġa", "pp"], ["Ġrem", "ember"], ["Ġne", "ar"], ["bb", "it"], ["ll", "ow"], ["Ġd", "is"], ["Ġs", "ound"], ["le", "ase"], ["Ġr", "ain"], ["Ġqu", "ick"], ["Ġimport", "ant"], ["Ġfore", "st"], ["Ġnot", "iced"], ["Ġwo", "nder"], ["Ġd", "e"], ["ma", "z"], ["Ġbo", "at"], ["Ġt", "al"], ["Ġwat", "ch"], ["Ġshow", "ed"], ["Ġst", "ick"], ["Ġa", "maz"], ["o", "on"], ["bb", "ed"], ["Ġ", "our"], ["Ġa", "c"], ["W", "e"], ["Ġrepl", "ied"], ["A", "nna"], ["a", "king"], ["Ġstr", "ong"], ["g", "an"], ["fe", "re"], ["Ġr", "ight"], ["Ġra", "bbit"], ["by", "e"], ["Ġfo", "llow"], ["Ġs", "qu"], ["ĠS", "pot"], ["n", "ing"], ["d", "ay"], ["Y", "es"], ["Ġdo", "es"], ["s", "er"], ["Ġdif", "fere"], ["Ġevery", "one"], ["Ġbr", "ight"], ["Ġw", "here"], ["c", "o"], ["Ġu", "se"], ["Ġh", "op"], ["Ġwat", "ched"], ["ĠS", "ue"], ["Ġwor", "k"], ["Ġy", "ell"], ["Ġfa", "ce"], ["S", "ara"], ["Ġdre", "ss"], ["Ġquick", "ly"], ["at", "h"], ["er", "ed"], ["Ġto", "w"], ["an", "ge"], ["Ġst", "ore"], ["Ġbe", "en"], ["Ġs", "u"], ["ĠMom", "my"], ["Ġbec", "ame"], ["Ġ", "N"], ["Ġy", "e"], ["Ġs", "ure"], ["Ġcu", "ri"], ["Ġdiffere", "nt"], ["a", "ught"], ["Ġvo", "ice"], ["Ġpl", "ace"], ["Ġfor", "g"], ["Ġwar", "m"], ["Ġa", "m"], ["Ġch", "ild"], ["Ġgood", "bye"], ["ĠB", "ob"], ["Ġc", "ake"], ["Ġc", "ook"], ["le", "ep"], ["Ġh", "igh"], ["nd", "ma"], ["Ġm", "ag"], ["Ġt", "ell"], ["m", "ore"], ["Ġany", "more"], ["it", "c"], ["Ġ", "R"], ["Ġcuri", "ous"], ["Ġn", "ight"], ["Ġclo", "ser"], ["Ġfa", "v"], ["ĠT", "h"], ["Ġpu", "ll"], ["ou", "nt"], ["Ġop", "en"], ["Ġbe", "l"], ["is", "s"], ["ir", "ed"], ["im", "es"], ["Ġf", "irst"], ["H", "er"], ["Ġhe", "re"], ["un", "ny"], ["Ġ", "z"], ["Ġbut", "ter"], ["a", "ched"], ["Ġr", "u"], ["Ġp", "ain"], ["Ġgra", "bbed"], ["Ġb", "us"], ["u", "ll"], ["Ġse", "es"], ["itc", "hen"], ["Ġfl", "o"], ["Ġk", "itchen"], ["Ġsw", "eet"], ["Ġk", "id"], ["Ġthre", "e"], ["Ġon", "ly"], ["Ġhelp", "ed"], ["Ġsa", "nd"], ["Ġst", "op"], ["Ġm", "on"], ["Ġcon", "t"], ["Ġbird", "s"], ["Ġhapp", "ened"], ["Ġjump", "ed"], ["ĠJo", "h"], ["Ġc", "ra"], ["Ġfi", "re"], ["Ġgl", "ad"], ["Ġd", "r"], ["Ġc", "r"], ["pp", "y"], ["Ġs", "ing"], ["ĠD", "o"], ["is", "y"], ["Ġbe", "h"], ["Ġgra", "ss"], ["Ġp", "er"], ["Ġt", "ri"], ["u", "l"], ["Ġbr", "other"], ["Ġshout", "ed"], ["A", "fter"], ["ĠL", "et"], ["Ġreal", "ized"], ["Ġstor", "y"], ["Ġl", "ady"], ["ak", "es"], ["Ġsh", "o"], ["Ġm", "ess"], ["Ġy", "ummy"], ["Ġso", "ft"], ["Ġg", "ame"], ["in", "s"], ["Ġre", "ached"], ["ĠSara", "h"], ["Ġha", "ving"], ["Ġdra", "w"], ["Ġat", "e"], ["Ġsm", "il"], ["'", "re"], ["Ġfav", "or"], ["Ġunder", "st"], ["Ġh", "at"], ["Ġpret", "end"], ["z", "y"], ["Ġfavor", "ite"], ["Ġp", "ap"], ["are", "nt"], ["Ġl", "ess"], ["Ġre", "st"], ["J", "o"], ["T", "im"], ["Ġre", "ady"], ["ĠC", "an"], ["Ġloo", "ks"], ["w", "here"], ["Ġthr", "ough"], ["Ġpr", "in"], ["ĠJ", "ane"], ["ĠA", "s"], ["at", "er"], ["k", "en"], ["ck", "ed"], ["Ġcar", "s"], ["Ġm", "aking"], ["ĠEvery", "one"], ["Ġp", "arent"], ["Ġb", "unny"], ["at", "her"], ["Ġre", "ally"], ["Mom", "my"], ["ĠT", "hat"], ["Ġt", "ired"], ["W", "ow"], ["Ġkid", "s"], ["Ġhim", "self"], ["Ġwor", "ld"], ["Ġc", "ut"], ["as", "s"], ["Ġd", "uck"], ["Ġmag", "ic"], ["Ġbe", "gan"], ["Ġbutter", "f"], ["Ġd", "one"], ["Ġcat", "ch"], ["Ġwor", "ry"], ["Ġcom", "ing"], ["Ġblo", "cks"], ["Ġc", "ried"], ["Ġwh", "y"], ["b", "o"], ["Ġp", "art"], ["Ġwa", "ved"], ["Ġfun", "ny"], ["Ġho", "ld"], ["Ġnam", "e"], ["Ġp", "rom"], ["Ġu", "sed"], ["Ġan", "other"], ["Ġflow", "er"], ["fu", "lly"], ["Ġta", "st"], ["Ġst", "e"], ["Ġf", "ill"], ["ll", "s"], ["Ġp", "us"], ["Ġf", "ro"], ["st", "er"], ["n", "g"], ["Y", "ou"], ["Ġse", "en"], ["Ġc", "ool"], ["ĠJo", "e"], ["one", "y"], ["Ġw", "ished"], ["ed", "dy"], ["i", "ent"], ["i", "ver"], ["Ġflo", "or"], ["Ġdel", "ic"], ["Ġgre", "en"], ["Ġsw", "im"], ["Ġli", "kes"], ["Ġb", "ag"], ["Ġl", "ight"], ["Ġpap", "er"], ["h", "y"], ["Ġm", "ouse"], ["T", "immy"], ["Ġparent", "s"], ["D", "on"], ["S", "am"], ["Ġdo", "ing"], ["Ġbeh", "ind"], ["Ġsm", "ell"], ["Ġless", "on"], ["at", "ion"], ["s", "h"], ["Ġho", "le"], ["Ġd", "ri"], ["Ġsurpr", "ise"], ["and", "y"], ["ard", "s"], ["Ġho", "pped"], ["ĠJoh", "n"], ["Ġs", "leep"], ["Ġb", "ow"], ["Ġfar", "m"], ["u", "ff"], ["Ġwor", "ked"], ["Ġd", "ro"], ["Jo", "h"], ["a", "isy"], ["Ġre", "ad"], ["Ġd", "ark"], ["Ġwind", "ow"], ["Ġyell", "ow"], ["Ġtre", "es"], ["Ġlaug", "h"], ["u", "ed"], ["Ġrun", "ning"], ["Ġsw", "ing"], ["Ġag", "re"], ["Ġd", "in"], ["Ġf", "ull"], ["Ġs", "at"], ["i", "ke"], ["el", "y"], ["Ġw", "ood"], ["Ġsp", "ot"], ["Ġremember", "ed"], ["ar", "ing"], ["Ġhapp", "ily"], ["Ġbutterf", "ly"], ["Ġsl", "ow"], ["Ġs", "et"], ["Ġco", "ld"], ["Ġsurpr", "ised"], ["Ġlo", "st"], ["Ġye", "ars"], ["Ġ", "-"], ["Ġ", "ice"], ["ĠI", "n"], ["Ġbu", "y"], ["Ġneed", "ed"], ["a", "by"], ["H", "ell"], ["Hell", "o"], ["Ġhe", "ld"], ["Ġmo", "ve"], ["Ġfro", "g"], ["en", "s"], ["Ġany", "thing"], ["Ġwr", "ong"], ["Ġli", "on"], ["Ġthan", "k"], ["Ġdre", "am"], ["Joh", "n"], ["Ġh", "un"], ["ck", "et"], ["Ġcare", "fully"], ["Ġle", "ft"], ["Ġt", "all"], ["Ġsn", "ow"], ["Ġfollow", "ed"], ["Ġper", "f"], ["TM", "s"], ["Ġe", "l"], ["Ġd", "ir"], ["Ġfa", "ir"], ["Ġfin", "ished"], ["Ġenjoy", "ed"], ["re", "am"], ["Ġh", "id"], ["Ġh", "ot"], ["Ġa", "ir"], ["Ġta", "ble"], ["Ġc", "ast"], ["in", "ed"], ["c", "ess"], ["Ġar", "ri"], ["Ġp", "lease"], ["d", "s"], ["Ġchild", "re"], ["Ġchildre", "n"], ["Ġunderst", "and"], ["Ġfriend", "ly"], ["Ġher", "self"], ["Ġbook", "s"], ["Ġcont", "in"], ["Ġb", "ug"], ["ro", "ss"], ["ĠA", "fter"], ["Ġar", "m"], ["a", "ir"], ["Ġbro", "ken"], ["ĠBen", "ny"], ["Ġclo", "se"], ["Ġel", "se"], ["Ġforg", "ot"], ["Ġm", "ight"], ["Ġp", "re"], ["Ġcolor", "s"], ["Ġdelic", "ious"], ["Ġh", "ill"], ["s", "p"], ["Ġha", "ir"], ["a", "il"], ["l", "f"], ["as", "ure"], ["Ġbu", "ild"], ["a", "ves"], ["Ġwant", "s"], ["Ġg", "ent"], ["Ġle", "aves"], ["Ġre", "l"], ["O", "K"], ["ie", "ld"], ["Ġarri", "ved"], ["ir", "re"], ["ro", "om"], ["Ġt", "ight"], ["Ġg", "one"], ["irre", "l"], ["as", "h"], ["at", "ter"], ["Ġs", "ig"], ["Ġwonder", "ful"], ["ĠN", "ow"], ["n", "er"], ["a", "v"], ["Ġa", "ble"], ["Ġsome", "one"], ["Ġs", "ong"], ["The", "n"], ["Ġg", "u"], ["on", "s"], ["Ġy", "es"], ["Ġc", "ount"], ["Ġb", "aby"], ["s", "et"], ["Ġsqu", "irrel"], ["Ġfill", "ed"], ["Ġcontin", "ued"], ["ĠS", "ally"], ["Ġbre", "ak"], ["i", "ch"], ["e", "e"], ["ĠThe", "re"], ["Ġagre", "ed"], ["ĠM", "aybe"], ["ĠD", "aisy"], ["Ġpo", "in"], ["Ġp", "ink"], ["'", "ll"], ["F", "rom"], ["Ġsc", "ary"], ["J", "ack"], ["Ġcook", "ies"], ["Ġgra", "ndma"], ["Ġv", "is"], ["Ġj", "u"], ["Ġf", "all"], ["at", "ed"], ["Ġhun", "gry"], ["m", "an"], ["ĠE", "m"], ["Ġm", "orn"], ["Ġmom", "ent"], ["ri", "es"], ["r", "ow"], ["Ġen", "ough"], ["Ġm", "akes"], ["ic", "y"], ["Ġmorn", "ing"], ["Ġcast", "le"], ["Ġsmil", "es"], ["Ġturn", "ed"], ["Ġf", "ight"], ["Ġfin", "ally"], ["Ġget", "ting"], ["Ġcre", "am"], ["Ġstay", "ed"], ["Ġsomet", "imes"], ["Ġw", "et"], ["a", "pp"], ["Ġ", "K"], ["e", "y"], ["Ġbe", "ach"], ["Ġcom", "p"], ["ou", "p"], ["Ġother", "s"], ["ĠTom", "my"], ["am", "a"], ["ĠTh", "is"], ["Ġm", "et"], ["Ġtry", "ing"], ["Ġpicture", "s"], ["r", "ot"], ["Th", "is"], ["Ġmu", "s"], ["ĠW", "hat"], ["Ġlist", "ened"], ["Ġta", "il"], ["Ġdin", "ner"], ["Ġclimb", "ed"], ["Ġcl", "ot"], ["Ġclot", "hes"], ["Ġamaz", "ing"], ["Ġm", "other"], ["Ġpu", "ppy"], ["a", "pped"], ["A", "t"], ["Ġfe", "w"], ["Ġtal", "k"], ["Ġperf", "ect"], ["an", "ce"], ["Ġball", "oon"], ["en", "ce"], ["ĠB", "illy"], ["Ġas", "ks"], ["Ġf", "ur"], ["Ġdad", "dy"], ["r", "ed"], ["or", "ing"], ["uff", "y"], ["Ġm", "ar"], ["O", "k"], ["Ġp", "et"], ["ct", "or"], ["Ġal", "one"], ["Ġwh", "ite"], ["Ġs", "it"], ["am", "p"], ["Ġsp", "l"], ["ĠG", "ra"], ["O", "h"], ["Ġpo", "l"], ["w", "l"], ["is", "ter"], ["Ġse", "ar"], ["Ġgr", "ow"], ["Ġwas", "n"], ["Ġpull", "ed"], ["Ġbr", "ought"], ["Ġevery", "thing"], ["ĠJ", "en"], ["Ġr", "ide"], ["or", "al"], ["Ġstr", "ange"], ["Ġp", "ie"], ["ot", "t"], ["d", "er"], ["Ġwa", "ited"], ["ĠT", "o"], ["Ġdan", "c"], ["Ġsp", "ark"], ["Ġjo", "y"], ["Ġwood", "s"], ["Ġw", "on"], ["Ġdan", "ger"], ["Ġh", "ide"], ["Ġpl", "an"], ["Ġf", "re"], ["Ġrun", "s"], ["Ġvis", "it"], ["Ġde", "ep"], ["M", "aybe"], ["Ġmus", "ic"], ["Ġamaz", "ed"], ["Ġle", "ave"], ["z", "z"], ["Ġp", "at"], ["Ġthink", "s"], ["Ġdra", "g"], ["Ġtow", "ards"], ["Ġli", "ving"], ["et", "er"], ["Ġcl", "oud"], ["an", "g"], ["Ġsh", "ap"], ["Ġt", "eddy"], ["Ġfly", "ing"], ["e", "ver"], ["W", "hen"], ["Ok", "ay"], ["am", "es"], ["Ġs", "illy"], ["Ġown", "er"], ["o", "s"], ["Ġp", "i"], ["M", "ax"], ["th", "y"], ["op", "e"], ["Ġp", "a"], ["ss", "ed"], ["Ġe", "m"], ["ow", "er"], ["Ġf", "ield"], ["is", "es"], ["Ġp", "en"], ["Ġl", "ake"], ["Ġm", "oney"], ["Ġgr", "ate"], ["Ġsh", "ared"], ["Ġla", "nd"], ["ig", "g"], ["Ġpart", "y"], ["Ġqu", "i"], ["ain", "ed"], ["Ġs", "ide"], ["Ġpain", "t"], ["Ġs", "ister"], ["Ġprom", "ised"], ["un", "ch"], ["Ġr", "ace"], ["Ġfast", "er"], ["c", "le"], ["Ġbro", "ke"], ["Ġjo", "b"], ["Ġgrate", "ful"], ["Ġm", "oral"], ["Ġc", "andy"], ["c", "ome"], ["av", "y"], ["i", "re"], ["Ġth", "is"], ["ec", "es"], ["Ġtre", "asure"], ["ĠA", "my"], ["Ġpi", "eces"], ["Ġb", "ott"], ["Ġbel", "ie"], ["Ġdo", "lls"], ["s", "w"], ["Ġwor", "ried"], ["Ġdan", "ce"], ["Ġe", "le"], ["Ġqui", "et"], ["Ġan", "sw"], ["l", "ing"], ["Ġm", "um"], ["ug", "g"], ["Ġmu", "st"], ["Ġbr", "an"], ["Ġ", "ve"], ["Ġcu", "p"], ["Ġcolor", "ful"], ["p", "h"], ["u", "it"], ["Ġwe", "l"], ["Ġbl", "ank"], ["out", "h"], ["Ġg", "if"], ["Ġslow", "ly"], ["o", "l"], ["Ġbig", "ger"], ["Ġm", "outh"], ["z", "e"], ["Ġb", "ar"], ["Ġre", "ach"], ["Ġbl", "ack"], ["u", "ally"], ["Ġsn", "ack"], ["Ġsm", "art"], ["Ġpl", "ant"], ["as", "ed"], ["Ġblank", "et"], ["Ġsc", "ream"], ["Ġb", "ike"], ["Ġsee", "m"], ["g", "g"], ["S", "ure"], ["Ġsu", "ch"], ["Ġevery", "where"], ["f", "ort"], ["Ġpr", "o"], ["m", "e"], ["Ġr", "iver"], ["Ġj", "e"], ["le", "ss"], ["Ġw", "in"], ["Ġdanger", "ous"], ["Ġp", "ot"], ["ĠF", "l"], ["i", "x"], ["Ġthre", "w"], ["Ġhelp", "ing"], ["Ġdir", "ty"], ["Ġprin", "cess"], ["Ġst", "u"], ["or", "m"], ["Ġhop", "ed"], ["Ġcar", "rot"], ["Ġcry", "ing"], ["Ġn", "ap"], ["at", "ure"], ["Ġsig", "n"], ["Ġmon", "ke"], ["Ġmonke", "y"], ["Ġmon", "ster"], ["o", "om"], ["e", "ar"], ["Ġdo", "ctor"], ["id", "ent"], ["o", "se"], ["Ġtw", "ins"], ["Ġmagic", "al"], ["Ġwor", "ds"], ["Ġdrag", "on"], ["or", "ed"], ["Ġb", "ite"], ["Ġac", "c"], ["Ġtow", "er"], ["Ġhe", "avy"], ["Ġmo", "st"], ["Ġsp", "r"], ["d", "e"], ["Ġbe", "e"], ["Ġsa", "me"], ["M", "ia"], ["Ġhe", "al"], ["Ġte", "ac"], ["at", "s"], ["H", "i"], ["Ġac", "ross"], ["W", "hy"], ["a", "f"], ["b", "ble"], ["Ġfr", "uit"], ["ĠM", "o"], ["Ġste", "pped"], ["Ġdis", "app"], ["ĠJ", "ill"], ["ch", "ool"], ["Ġb", "uck"], ["Ġst", "uck"], ["Ġb", "ath"], ["Ġclo", "sed"], ["e", "ared"], ["ĠDad", "dy"], ["Ġwould", "n"], ["Ġst", "re"], ["Ġfarm", "er"], ["Ġco", "ll"], ["Ġc", "our"], ["Ġbut", "t"], ["Ġm", "ix"], ["ĠM", "r"], ["Ġto", "wn"], ["Ġhe", "art"], ["Ġfeel", "s"], ["TM", "t"], ["Ġeat", "ing"], ["Ġat", "t"], ["Ġbelie", "ve"], ["Ġs", "chool"], ["Ġch", "air"], ["Ġcr", "ay"], ["Ġteac", "her"], ["Ġcour", "se"], ["Ġp", "ack"], ["Ġbr", "own"], ["Ġsa", "il"], ["Ġh", "it"], ["Ġpus", "hed"], ["ĠMo", "lly"], ["Ġsw", "ings"], ["Ġy", "ard"], ["Ġgent", "le"], ["is", "sed"], ["Ġsm", "o"], ["Ġwith", "out"], ["or", "row"], ["Ġacc", "ident"], ["um", "b"], ["Ġm", "in"], ["t", "s"], ["Ġjo", "in"], ["Ġwel", "come"], ["i", "ant"], ["b", "r"], ["Ġcl", "apped"], ["Ġturn", "s"], ["Ġg", "ames"], ["ig", "her"], ["Ġto", "day"], ["i", "er"], ["Ġst", "and"], ["ve", "l"], ["or", "s"], ["ĠA", "ll"], ["Ġfair", "y"], ["Ġh", "igher"], ["Ġb", "en"], ["Ġno", "ises"], ["i", "pp"], ["Ġd", "ry"], ["Ġne", "igh"], ["our", "n"], ["Ġpo", "cket"], ["Ġc", "e"], ["F", "in"], ["Ġdro", "ve"], ["Ġp", "ers"], ["Ġs", "uddenly"], ["Ġj", "ourn"], ["Ġneigh", "b"], ["vent", "ually"], ["Ġpie", "ce"], ["Ġhug", "s"], ["ph", "ant"], ["c", "y"], ["Ġche", "ered"], ["Ġfor", "get"], ["Ġl", "on"], ["ra", "ct"], ["Ġne", "ck"], ["Ġfre", "e"], ["Ġl", "uck"], ["Ġf", "ence"], ["h", "o"], ["Ġw", "ings"], ["Ġlon", "ely"], ["i", "ves"], ["Ġexpl", "ained"], ["Ġc", "orn"], ["Ġele", "phant"], ["Ġstor", "ies"], ["Ġup", "set"], ["Ġsa", "ng"], ["Ġl", "ate"], ["Ġse", "a"], ["itt", "ing"], ["Ġl", "unch"], ["Ġsho", "es"], ["i", "ble"], ["Ġst", "ars"], ["st", "e"], ["Ġw", "he"], ["Ġal", "ong"], ["Ġs", "oup"], ["Ġlong", "er"], ["Ġm", "iss"], ["ste", "ad"], ["Ġc", "aught"], ["c", "ret"], ["Ġtr", "ou"], ["c", "hes"], ["Ġm", "at"], ["Ġse", "cret"], ["Ġst", "ar"], ["Fin", "ally"], ["Ġadventure", "s"], ["Ġyou", "ng"], ["Ġsh", "ook"], ["ow", "s"], ["Ġj", "ar"], ["ap", "e"], ["Ġw", "ish"], ["Ġro", "cks"], ["ou", "n"], ["ig", "n"], ["Ġmo", "ved"], ["Ġdro", "pped"], ["m", "ent"], ["Ġbuck", "et"], ["Ġsing", "ing"], ["Ġapp", "le"], ["un", "g"], ["ĠTh", "ank"], ["Ġp", "ast"], ["Ġo", "wl"], ["Ġp", "urp"], ["Ġbr", "ing"], ["Ġm", "ine"], ["D", "o"], ["Ġback", "y"], ["Ġbacky", "ard"], ["Ġor", "ange"], ["Ġd", "ist"], ["Ġpl", "ac"], ["Ġdr", "ink"], ["Ġto", "m"], ["ĠGra", "ndma"], ["aught", "y"], ["Ġex", "p"], ["Ġn", "aughty"], ["fu", "sed"], ["Ġbel", "ong"], ["Ġju", "ice"], ["Ġch", "o"], ["ĠM", "ary"], ["Ġstre", "et"], ["Ġta", "king"], ["ĠFl", "uffy"], ["Ġshap", "es"], ["Ġke", "y"], ["bb", "y"], ["Ġta", "kes"], ["Ġnot", "hing"], ["e", "k"], ["ount", "ain"], ["Ġexpl", "oring"], ["Ġno", "se"], ["Ġsh", "op"], ["Ġpurp", "le"], ["us", "h"], ["ĠEm", "ma"], ["Ġw", "ise"], ["w", "ard"], ["Ġnear", "by"], ["Ġre", "sp"], ["Ġben", "ch"], ["Ġa", "f"], ["or", "d"], ["Ġd", "es"], ["co", "l"], ["Ġwonder", "ed"], ["c", "es"], ["Ġ", "es"], ["Ġwo", "ke"], ["Ġsound", "s"], ["Ġcom", "es"], ["Ġbus", "y"], ["Ġm", "ad"], ["Ġs", "ick"], ["Ġseem", "ed"], ["Ġin", "v"], ["it", "ing"], ["Ġth", "ough"], ["Ġrel", "ie"], ["Ġhold", "ing"], ["ion", "s"], ["Ġye", "ar"], ["Ġt", "iny"], ["itt", "ens"], ["f", "ish"], ["Ġp", "ig"], ["Ġ", "3"], ["Ġn", "est"], ["Ġarm", "s"], ["Ġm", "il"], ["Ġs", "itting"], ["aught", "er"], ["th", "day"], ["ra", "id"], ["Ġ", "O"], ["u", "ch"], ["Ġto", "uch"], ["Ġc", "ir"], ["al", "m"], ["Ġaf", "raid"], ["Ġm", "ail"], ["Ġrain", "b"], ["Ġm", "ark"], ["Ġo", "b"], ["Ġkn", "o"], ["t", "o"], ["Ġbran", "ch"], ["Ġdri", "ver"], ["a", "le"], ["Ġr", "ound"], ["Ġswim", "m"], ["Ġcut", "e"], ["Ġf", "it"], ["it", "y"], ["et", "h"], ["Ġpat", "ient"], ["Ġcar", "ry"], ["ĠIn", "side"], ["Ġk", "ite"], ["Ġpe", "ace"], ["Ġhe", "ll"], ["Ġhell", "o"], ["Ġb", "oun"], ["ĠC", "ome"], ["Ġd", "aughter"], ["Ġfore", "ver"], ["Ġli", "ft"], ["re", "st"], ["Ġk", "ing"], ["id", "ge"], ["u", "ched"], ["Ġto", "uched"], ["Ġbre", "ad"], ["Ġb", "and"], ["Ġhug", "e"], ["le", "t"], ["Ġbir", "thday"], ["Ġswimm", "ing"], ["Ġprom", "ise"], ["Ġaccident", "ally"], ["He", "y"], ["our", "s"], ["Ġw", "ra"], ["Ġrelie", "ved"], ["c", "ed"], ["g", "s"], ["Ġhop", "e"], ["bo", "ard"], ["Ġl", "etter"], ["Ġput", "s"], ["pp", "ing"], ["Ġsp", "oon"], ["Ġg", "ives"], ["Ġg", "igg"], ["Ġmil", "k"], ["Ġf", "ing"], ["Ġk", "ick"], ["Ġche", "es"], ["sh", "ine"], ["Ġwh", "ist"], ["Ġsp", "in"], ["Ġbott", "le"], ["Ġcre", "ature"], ["Ġf", "an"], ["Ġco", "ver"], ["Ġday", "s"], ["e", "rest"], ["Ġm", "ist"], ["Ġchees", "e"], ["Ġa", "ct"], ["Ġco", "zy"], ["ĠT", "w"], ["Ġon", "to"], ["Ġli", "fe"], ["L", "ater"], ["Ġint", "erest"], ["ĠSam", "my"], ["Ġjourn", "ey"], ["Ġsun", "ny"], ["Ġlaug", "hing"], ["Ġcoll", "ect"], ["Ġa", "nt"], ["s", "y"], ["Ġsun", "shine"], ["Ġexc", "iting"], ["Ġluck", "y"], ["Ġp", "ower"], ["p", "ed"], ["Ġre", "t"], ["el", "s"], ["Ġin", "stead"], ["Ġim", "ag"], ["in", "ing"], ["Ġbus", "h"], ["Ġcom", "fort"], ["Ġdis", "co"], ["om", "an"], ["Ġrainb", "ow"], ["Ġe", "ar"], ["Ġw", "oman"], ["Ġc", "ave"], ["n", "ess"], ["Ġme", "an"], ["Ġc", "ou"], ["ar", "p"], ["Ġsear", "ched"], ["Ġb", "ought"], ["Ġpoin", "ted"], ["Ġsmil", "ing"], ["Ġin", "c"], ["Ġsp", "o"], ["t", "en"], ["Ġret", "urn"], ["Tom", "my"], ["Ġsh", "arp"], ["Ġp", "udd"], ["it", "ch"], ["Ġe", "as"], ["Ġro", "ad"], ["ĠM", "ama"], ["ĠSo", "on"], ["Ġl", "ater"], ["Ġwatch", "ing"], ["iz", "e"], ["o", "g"], ["Ġp", "h"], ["Ġg", "ather"], ["Ġtal", "ked"], ["Ġsand", "w"], ["Ġh", "oney"], ["Ġany", "one"], ["Ġs", "uc"], ["Ġe", "gg"], ["b", "all"], ["as", "k"], ["ask", "et"], ["Ġb", "asket"], ["Ġtre", "at"], ["Ġpl", "ane"], ["Ġtast", "y"], ["ble", "m"], ["Ġpro", "blem"], ["Ġheal", "thy"], ["Ġstor", "m"], ["Ġtrou", "ble"], ["Ġduck", "s"], ["Ġbutt", "on"], ["Ġp", "op"], ["G", "ood"], ["Ġk", "iss"], ["Ġm", "ach"], ["Ġcray", "ons"], ["Ġp", "ile"], ["Ġp", "ar"], ["Ġz", "oom"], ["r", "ound"], ["Ġr", "ope"], ["Ġme", "et"], ["Ġsmell", "ed"], ["Ġsnow", "man"], ["Ġapp", "les"], ["Ġcle", "ver"], ["Ġsp", "id"], ["Ġcloud", "s"], ["Ġsh", "ining"], ["Ġlo", "ves"], ["am", "ed"], ["Ġc", "alm"], ["Ġd", "i"], ["m", "er"], ["B", "ob"], ["Ġpre", "s"], ["Ġ", "ent"], ["Ġpers", "on"], ["itt", "en"], ["Ġinterest", "ing"], ["Ġre", "s"], ["Ġz", "oo"], ["Ġresp", "ect"], ["Ġw", "ide"], ["Ġc", "ard"], ["Ġm", "atter"], ["ĠTw", "eet"], ["nd", "p"], ["Ġcre", "at"], ["or", "se"], ["Ġs", "ur"], ["Ġor", "gan"], ["Ġscream", "ed"], ["er", "t"], ["u", "p"], ["Ġfe", "ather"], ["Ġb", "ark"], ["Ġh", "on"], ["Ġad", "m"], ["ĠS", "omet"], ["Ġmu", "d"], ["Ġa", "p"], ["Ġe", "ag"], ["ĠE", "ll"], ["Ġp", "ract"], ["Ġqu", "est"], ["Ġfr", "on"], ["Ġfron", "t"], ["Ġansw", "er"], ["Ġpu", "zz"], ["e", "b"], ["ep", "end"], ["ĠW", "ith"], ["Ġpr", "ot"], ["Ġte", "eth"], ["Ġp", "ill"], ["Ġgo", "es"], ["Ġsn", "ake"], ["Ġh", "orse"], ["Ġas", "leep"], ["Ġtri", "p"], ["Ġforg", "ive"], ["Ġprot", "ect"], ["Ġsh", "r"], ["u", "b"], ["er", "y"], ["Ġte", "ach"], ["er", "ly"], ["Ġp", "ath"], ["a", "ur"], ["Ġpres", "ent"], ["L", "ucy"], ["Ġsa", "f"], ["œ", "I"], ["Ġapp", "eared"], ["Ġdanc", "ed"], ["Ġtri", "es"], ["Ġv", "ill"], ["Ġneighb", "or"], ["ĠM", "ittens"], ["Ġspot", "ted"], ["Ġv", "al"], ["Ġg", "iant"], ["oo", "se"], ["Ġc", "a"], ["Ġwe", "aring"], ["Ġmy", "ster"], ["Ġw", "ild"], ["Ġsl", "id"], ["M", "o"], ["S", "t"], ["ch", "ing"], ["Ġwh", "ich"], ["Ġwho", "le"], ["Ġlove", "ly"], ["J", "ust"], ["Ġplac", "es"], ["Ġgent", "ly"], ["Ġph", "one"], ["ĠJ", "immy"], ["is", "a"], ["Ġth", "in"], ["itt", "y"], ["e", "x"], ["Ġwor", "m"], ["Ġtast", "ed"], ["Ġdir", "t"], ["ĠH", "ow"], ["Ġfa", "ces"], ["ndp", "a"], ["Ġdisco", "ver"], ["Ġmach", "ine"], ["on", "es"], ["ul", "ar"], ["Ġmin", "ut"], ["Ġas", "h"], ["Ġcon", "fused"], ["Ġimp", "re"], ["Ġru", "de"], ["ce", "an"], ["Ġo", "cean"], ["Ġp", "ass"], ["Ġpretend", "ed"], ["Ġm", "ind"], ["E", "very"], ["Ġspl", "as"], ["Ġsu", "pp"], ["Ġco", "in"], ["Ġp", "an"], ["Ġwa", "ve"], ["Ġcou", "ch"], ["Ġfe", "et"], ["Ġt", "un"], ["Ġtom", "orrow"], ["c", "om"], ["Mo", "lly"], ["Ġdri", "ve"], ["h", "ile"], ["Ġs", "er"], ["Ġsp", "ent"], ["Ġch", "ick"], ["Ġcorn", "er"], ["Ġcook", "ie"], ["Ġsa", "l"], ["Ġm", "ed"], ["Ġw", "ip"], ["iz", "z"], ["Ġspid", "er"], ["Ġpic", "n"], ["Ġle", "af"], ["Ġpicn", "ic"], ["Ġsmo", "oth"], ["Ġcho", "col"], ["Ġem", "b"], ["Ġ", "ign"], ["Ġl", "ay"], ["Ġfur", "ry"], ["Ġc", "art"], ["Ġhid", "ing"], ["Ġl", "ad"], ["Ġbug", "s"], ["Ġsh", "ir"], ["um", "ber"], ["Ġla", "st"], ["Ġo", "ven"], ["Ġwr", "ite"], ["Ġbuild", "ing"], ["Ġr", "ing"], ["Ġpus", "h"], ["Ġt", "id"], ["Ġs", "el"], ["Ġneck", "l"], ["Ġhelp", "ful"], ["Ġkne", "e"], ["re", "ad"], ["al", "s"], ["Ġtoo", "l"], ["Ġdel", "ight"], ["Ġbu", "bble"], ["Ġtal", "king"], ["Ġpa", "w"], ["Ġfo", "ot"], ["Ġcan", "n"], ["ar", "ra"], ["ĠEm", "ily"], ["Ġfo", "ld"], ["Ġst", "ret"], ["Ġb", "lew"], ["Ġch", "ased"], ["Ġfight", "ing"], ["Ġm", "aybe"], ["Ġrem", "ind"], ["Ġemb", "arra"], ["if", "e"], ["Ġsh", "y"], ["ĠC", "h"], ["ar", "m"], ["uck", "y"], ["Ġcann", "ot"], ["ĠSomet", "imes"], ["Ġsp", "read"], ["at", "o"], ["Ġfin", "ish"], ["Ġsong", "s"], ["Ġn", "et"], ["Ġl", "ar"], ["Ġlad", "der"], ["Ġre", "p"], ["Ġw", "ore"], ["Ġwait", "ing"], ["an", "an"], ["Ġchocol", "ate"], ["un", "k"], ["Ġe", "ventually"], ["Ġm", "ountain"], ["Ġspr", "ay"], ["Ġp", "ool"], ["Ġsel", "fish"], ["le", "x"], ["Ġso", "l"], ["Ġpudd", "le"], ["Ġbar", "ked"], ["ul", "t"], ["Ġb", "a"], ["Ġtast", "e"], ["ĠJ", "ust"], ["So", "on"], ["Ġb", "anan"], ["b", "ot"], ["Ġro", "bot"], ["Ġc", "oo"], ["Ġwas", "h"], ["Ġwhen", "ever"], ["Ġc", "ross"], ["Ġcreat", "ive"], ["M", "y"], ["Ġcl", "oth"], ["Ġpeace", "ful"], ["Ġlar", "ge"], ["Ġstr", "ing"], ["ĠS", "t"], ["Ġst", "one"], ["Ġtid", "y"], ["Ġmo", "on"], ["ĠJen", "ny"], ["Ġsc", "ar"], ["Ġpl", "ate"], ["ĠP", "lease"], ["Ġkno", "cked"], ["Ġneckl", "ace"], ["ump", "y"], ["le", "br"], ["at", "or"], ["ung", "le"], ["op", "h"], ["Ġce", "lebr"], ["bo", "x"], ["ig", "er"], ["P", "lease"], ["ĠEvery", "where"], ["ell", "y"], ["Ġst", "ep"], ["Ġj", "ungle"], ["Ġg", "en"], ["Ġst", "ir"], ["Ġtell", "s"], ["Ġcarrot", "s"], ["Ġm", "issed"], ["Ġtr", "ust"], ["Ġshir", "t"], ["Ġembarra", "ssed"], ["Ġhe", "ars"], ["get", "able"], ["ur", "se"], ["Ġshe", "lf"], ["Ġvill", "age"], ["Ġro", "cket"], ["Ġtre", "ats"], ["ĠJ", "im"], ["Ġve", "getable"], ["Ġh", "um"], ["Ġst", "ra"], ["Ġdec", "or"], ["Ġb", "at"], ["ĠS", "ome"], ["Ġstick", "s"], ["air", "s"], ["Ġ", "'"], ["p", "er"], ["m", "o"], ["Ġto", "p"], ["x", "ed"], ["Ġfi", "xed"], ["ĠA", "l"], ["ĠThe", "ir"], ["Ġwh", "is"], ["ĠJ", "ake"], ["Ġcol", "our"], ["Ġcra", "b"], ["Ġhe", "l"], ["Ġsh", "aring"], ["Ġfor", "ward"], ["e", "ak"], ["Ġsp", "icy"], ["nn", "y"], ["Ġgr", "ay"], ["Ġg", "un"], ["in", "ted"], ["Ġwhist", "le"], ["Ġem", "p"], ["Ġsa", "ve"], ["d", "ge"], ["Ġjump", "ing"], ["Ġemp", "ty"], ["Ġle", "gs"], ["Ġno", "ds"], ["M", "ama"], ["Ġland", "ed"], ["ĠT", "V"], ["Ġtight", "ly"], ["Ġgre", "w"], ["Ġash", "amed"], ["Ġje", "w"], ["Ġp", "le"], ["ir", "d"], ["mo", "st"], ["Ġspl", "ash"], ["an", "o"], ["Ġd", "eter"], ["Ġse", "ed"], ["Ġn", "ut"], ["Ġhon", "est"], ["Ġb", "er"], ["Ġsee", "k"], ["Ġunderst", "ood"], ["Ġal", "most"], ["Ġdeter", "m"], ["Ġp", "ay"], ["Ġdisapp", "o"], ["Ġgen", "er"], ["Ġme", "ad"], ["Ġme", "ant"], ["ĠW", "hy"], ["Ġst", "ood"], ["l", "o"], ["Ġthe", "se"], ["Ġcar", "ried"], ["Ġpol", "ice"], ["Ġb", "al"], ["Ġgl", "ow"], ["Ġbre", "ath"], ["n", "ed"], ["Ġhapp", "en"], ["Ġsh", "ore"], ["sp", "it"], ["d", "le"], ["Ġho", "spit"], ["Ġv", "an"], ["Ġgo", "ld"], ["Ġyell", "ed"], ["Ġ", "On"], ["T", "o"], ["g", "round"], ["Ġhospit", "al"], ["Ġdre", "w"], ["Sara", "h"], ["ĠD", "on"], ["Ġl", "ine"], ["Ġle", "m"], ["ĠL", "isa"], ["Ġb", "ored"], ["Ġg", "as"], ["St", "op"], ["ĠT", "eddy"], ["Ġsc", "re"], ["Ġshe", "ep"], ["Ġmead", "ow"], ["v", "ous"], ["if", "f"], ["Ġsnack", "s"], ["Ġfe", "ar"], ["Ġsuc", "cess"], ["Ġdisappo", "inted"], ["Ġcl", "ass"], ["Ġpuzz", "le"], ["Ġscar", "f"], ["Ġk", "itten"], ["Ġgr", "oup"], ["Ġshe", "ll"], ["Ġc", "ries"], ["Ġhid", "d"], ["Ġhidd", "en"], ["Ġbed", "room"], ["Ġwa", "ves"], ["Ġu", "g"], ["Ġb", "urn"], ["Ġfe", "ed"], ["Ġh", "ours"], ["Ġplant", "s"], ["Ġa", "v"], ["Ġfan", "cy"], ["ust", "r"], ["i", "an"], ["ĠL", "il"], ["ĠLil", "a"], ["W", "here"], ["Ġcir", "c"], ["Ġspark", "ly"], ["Ġug", "ly"], ["Ġmess", "y"], ["Ġt", "est"], ["Ġeas", "y"], ["w", "or"], ["Ġ", "Z"], ["Ġsandw", "ich"], ["Ġsh", "ip"], ["Ġsleep", "y"], ["Ġt", "ick"], ["Ġgener", "ous"], ["Ġsig", "hed"], ["p", "ill"], ["on", "y"], ["Ġj", "elly"], ["Ġcr", "own"], ["Ġstand", "ing"], ["Ġv", "ase"], ["The", "re"], ["c", "er"], ["h", "in"], ["Ġpo", "or"], ["Ġp", "izz"], ["Ġn", "er"], ["Ġknow", "ing"], ["Ġpower", "ful"], ["Ġgl", "ass"], ["ĠE", "ven"], ["Ġta", "ught"], ["er", "pill"], ["Ġcat", "erpill"], ["Ġk", "issed"], ["Ġfr", "ustr"], ["Ġp", "ir"], ["ar", "l"], ["Ġreturn", "ed"], ["Ġt", "ent"], ["Ġp", "ri"], ["ĠTo", "gether"], ["Ġprin", "ce"], ["Ġner", "vous"], ["Ġte", "ars"], ["Ġclo", "set"], ["Ġpol", "ite"], ["k", "in"], ["l", "ower"], ["Ġyour", "self"], ["Ġm", "ot"], ["Ġp", "in"], ["Ġso", "ld"], ["oo", "f"], ["'", "d"], ["Ġcl", "own"], ["Ġche", "w"], ["Ġthank", "ful"], ["ĠR", "ex"], ["as", "sed"], ["ens", "ive"], ["Ġp", "assed"], ["bo", "dy"], ["Ġsc", "o"], ["o", "bby"], ["Ġexp", "ensive"], ["Ġpizz", "a"], ["Ġwo", "lf"], ["Ġb", "oring"], ["Ġgr", "umpy"], ["in", "a"], ["Ġdr", "op"], ["Ġfl", "ag"], ["Ġde", "er"], ["Ġtw", "irl"], ["Ġcaterpill", "ar"], ["Ġpick", "s"], ["Ġfrustr", "ated"], ["Ġg", "ate"], ["Ġdeterm", "ined"], ["Ġha", "ng"], ["Ġmyster", "ious"], ["iss", "ors"], ["Ġf", "ig"], ["Ġr", "ad"], ["Ġf", "il"], ["Ġh", "ur"], ["Ġdanc", "ing"], ["et", "s"], ["Ġwa", "ll"], ["Ġre", "g"], ["sel", "ves"], ["Ġche", "st"], ["Ġof", "ten"], ["Ġexc", "ite"], ["Ġsc", "issors"], ["Ġgather", "ed"], ["iz", "zy"], ["Ġget", "s"], ["at", "es"], ["ill", "ed"], ["Ġminut", "es"], ["Ġre", "c"], ["l", "a"], ["k", "ay"], ["Ġo", "kay"], ["u", "d"], ["I", "n"], ["B", "e"], ["Ġm", "ir"], ["Ġes", "c"], ["Ġsc", "r"], ["id", "dle"], ["Ġbr", "idge"], ["Ġpack", "ed"], ["Ġwor", "king"], ["l", "ue"], ["Ġmist", "ake"], ["J", "ane"], ["l", "ight"], ["Ġ", "OK"], ["Ġwhe", "el"], ["Ġho", "pping"], ["Ġc", "ap"], ["u", "al"], ["ĠB", "r"], ["Ġqu", "e"], ["Ġansw", "ered"], ["Ġsa", "ved"], ["Ġdog", "s"], ["ĠP", "eter"], ["Ġvegetable", "s"], ["r", "or"], ["Ġl", "it"], ["Ġb", "one"], ["Ġgigg", "led"], ["Ġexcite", "ment"], ["Ġwa", "nder"], ["Ġcomfort", "able"], ["Ġfl", "ut"], ["Ġn", "umber"], ["Ġc", "and"], ["Ġsp", "end"], ["m", "b"], ["Ġlo", "se"], ["u", "ce"], ["W", "ho"], ["os", "aur"], ["Ġtr", "ue"], ["Ġkn", "ight"], ["Ġd", "est"], ["y", "ing"], ["Ġru", "ined"], ["Ġm", "iddle"], ["The", "ir"], ["Ġw", "is"], ["Ġro", "ar"], ["Ġfruit", "s"], ["Ġdraw", "ing"], ["Ġli", "cked"], ["Ġsweet", "ie"], ["Ġcra", "wl"], ["Ġta", "ken"], ["Ġwal", "ks"], ["ot", "s"], ["us", "ie"], ["Ġon", "es"], ["eci", "ally"], ["Ġm", "ummy"], ["Ġmed", "ic"], ["Ġas", "king"], ["Ġt", "ape"], ["Ġbo", "ss"], ["Ġdin", "osaur"], ["Ġst", "uff"], ["M", "e"], ["Ġdr", "um"], ["Ġa", "dd"], ["Ġcl", "ap"], ["p", "ecially"], ["Ġex", "am"], ["Ġsmell", "y"], ["Ġes", "pecially"], ["Ġf", "ake"], ["Ġfeather", "s"], ["Ġbr", "ush"], ["Ġbath", "room"], ["Ġch", "ange"], ["Ġs", "ight"], ["Ġmedic", "ine"], ["in", "ess"], ["Ġmir", "ror"], ["ell", "a"], ["Ġegg", "s"], ["Ġball", "s"], ["Ġdist", "ance"], ["Ġst", "ones"], ["Ġmat", "ch"], ["Ġpr", "ay"], ["i", "ving"], ["Ġgl", "ue"], ["Ġque", "en"], ["Ġte", "am"], ["Ġc", "age"], ["Ġl", "ying"], ["Ġm", "ic"], ["ĠJoh", "nny"], ["Ġla", "zy"], ["ĠI", "f"], ["Ġf", "is"], ["Ġt", "ie"], ["Ġmo", "ving"], ["Ġno", "isy"], ["Ġbec", "ome"], ["Ġo", "k"], ["Ġyour", "s"], ["Ġsplas", "hed"], ["Ġcall", "ing"], ["Ġle", "ad"], ["Ġso", "ap"], ["Ġwe", "ak"], ["h", "a"], ["ĠB", "e"], ["Ġdec", "ide"], ["Ġple", "ased"], ["Ġ", "No"], ["h", "ip"], ["Ġbo", "dy"], ["Ġdr", "ank"], ["Ġfl", "uffy"], ["at", "ing"], ["H", "el"], ["Ġsa", "iled"], ["Ġlem", "on"], ["Ġb", "ake"], ["Ġsho", "ot"], ["ugg", "est"], ["Ġh", "u"], ["Ġmom", "s"], ["Ġplay", "ground"], ["ag", "ed"], ["Ġs", "uggest"], ["Ġdisapp", "eared"], ["al", "ous"], ["Ġme", "asure"], ["Ġh", "orn"], ["Ġje", "alous"], ["Ġcover", "ed"], ["Hel", "p"], ["ĠB", "lue"], ["Ġshow", "s"], ["Ġinc", "red"], ["Ġquest", "ions"], ["Ġf", "ine"], ["Ġpill", "ow"], ["J", "immy"], ["Ġju", "icy"], ["Ġe", "ld"], ["Ġtw", "ist"], ["e", "ed"], ["Ġpo", "nd"], ["Ġrel", "ax"], ["Ġwr", "ot"], ["Ġwrot", "e"], ["re", "l"], ["c", "ing"], ["in", "ation"], ["Ġf", "ather"], ["Ġche", "ck"], ["Ġjo", "ke"], ["Ġwor", "d"], ["Ġ", "ed"], ["z", "ed"], ["Ġr", "are"], ["Ġl", "amp"], ["Ġm", "ap"], ["Ġneed", "s"], ["Ġcomp", "et"], ["Ġhurt", "s"], ["Ġmo", "v"], ["w", "led"], ["Ġcont", "ent"], ["Ġboy", "s"], ["Ġcra", "wled"], ["umb", "led"], ["Ġclean", "ed"], ["Ġex", "t"], ["ĠA", "t"], ["Ġco", "st"], ["Ġ", "ind"], ["Ġchick", "en"], ["Ġhappen", "ing"], ["Ġincred", "ible"], ["Ġse", "ll"], ["Ġfam", "ous"], ["c", "il"], ["Ġpen", "cil"], ["Ġt", "iger"], ["ĠE", "nd"], ["Ġorgan", "ized"], ["ra", "g"], ["Ġjew", "el"], ["Ġbran", "ches"], ["Ġt", "ag"], ["f", "ast"], ["Ġfr", "own"], ["Ġs", "il"], ["Ġr", "ich"], ["Ġgu", "ess"], ["Ġb", "orrow"], ["ar", "age"], ["Ġlaugh", "s"], ["i", "qu"], ["im", "ed"], ["Ġg", "arage"], ["S", "ally"], ["Ġa", "w"], ["Ġfig", "ure"], ["Ġmot", "or"], ["g", "u"], ["Ġdif", "f"], ["Ġbreak", "fast"], ["Ġdiff", "ic"], ["Ġbubble", "s"], ["B", "illy"], ["iqu", "e"], ["Ġmo", "d"], ["Ġun", "us"], ["Ġho", "se"], ["Ġoff", "ered"], ["Ġb", "arn"], ["Ġext", "ra"], ["Ġbanan", "a"], ["Ġeld", "erly"], ["Ġd", "ish"], ["ĠK", "itty"], ["Ġdiscover", "ed"], ["Ġlo", "y"], ["Ġloy", "al"], ["Ġth", "ick"], ["Ġunus", "ual"], ["l", "ies"], ["Ġch", "ase"], ["as", "ing"], ["Ġdiffic", "ult"], ["Ġco", "ins"], ["Ġon", "ce"], ["Ġun", "ique"], ["Ġsqu", "ee"], ["an", "ged"], ["ĠS", "p"], ["t", "i"], ["Ġfl", "ash"], ["S", "pot"], ["Ġloud", "er"], ["Ġsw", "ord"], ["Ġreal", "ised"], ["Ġwh", "ale"], ["W", "ell"], ["ce", "pt"], ["?\"", "."], ["Ġballoon", "s"], ["Ġkn", "ife"], ["Ġhu", "nt"], ["at", "ely"], ["Ġg", "iving"], ["Ġsh", "ake"], ["G", "ra"], ["pp", "er"], ["Ġtruck", "s"], ["Ġadvent", "ur"], ["Ġan", "g"], ["Ġher", "o"], ["Ġt", "urt"], ["Ġf", "ool"], ["ag", "es"], ["ĠBr", "own"], ["Ġto", "ug"], ["S", "ue"], ["Ġba", "ld"], ["Ġber", "ries"], ["Ġlift", "ed"], ["Ġa", "dded"], ["Ġkind", "ness"], ["Ġbal", "ance"], ["Ġbott", "om"], ["Ġcolour", "ful"], ["Ġpoin", "ting"], ["Ġdream", "ed"], ["Ġsp", "un"], ["He", "re"], ["Ġadventur", "ous"], ["Ġblo", "om"], ["Ġhelp", "s"], ["Ġfall", "s"], ["Ġshap", "e"], ["H", "ow"], ["em", "o"], ["Ġe", "ars"], ["Ġdo", "lp"], ["Ġsmo", "ke"], ["ol", "og"], ["Ġbird", "ie"], ["Ġwe", "ird"], ["he", "ad"], ["Ġstra", "w"], ["Ġwra", "pped"], ["il", "t"], ["ĠM", "y"], ["ke", "ep"], ["Ġsk", "in"], ["Ġch", "oose"], ["wor", "k"], ["y", "m"], ["ĠM", "ark"], ["Ġbox", "es"], ["Ġcir", "cle"], ["Ġd", "izzy"], ["Ġbr", "ill"], ["Ġbrother", "s"], ["Ġhard", "er"], ["ous", "es"], ["Ġdo", "ll"], ["ugg", "led"], ["Ġmight", "y"], ["Ġimpre", "ssed"], ["Ġap", "olog"], ["Ġcompet", "it"], ["Ġhat", "s"], ["Ġc", "her"], ["ĠL", "ittle"], ["Ġh", "arm"], ["Ġgr", "own"], ["Ġbrill", "iant"], ["A", "my"], ["Ġman", "aged"], ["Ġwhis", "p"], ["j", "ect"], ["Ġmean", "s"], ["Ġp", "ump"], ["Ġsc", "are"], ["Ġfr", "ight"], ["Ġtoug", "h"], ["Ġb", "atter"], ["Ġre", "f"], ["Ġj", "ack"], ["re", "ady"], ["Ġd", "epend"], ["Ġed", "ge"], ["Ġy", "og"], ["Ġfav", "our"], ["Ġsear", "ch"], ["Ġenjoy", "ing"], ["Ġh", "ouses"], ["a", "w"], ["A", "l"], ["Ġbutt", "ons"], ["Ġloud", "ly"], ["Ġgra", "ce"], ["Ġal", "ready"], ["Ġn", "orm"], ["Ġfool", "ish"], ["Ġbelong", "ed"], ["Ġt", "er"], ["or", "y"], ["i", "v"], ["app", "ing"], ["Ġfavour", "ite"], ["Ġf", "at"], ["J", "en"], ["Ġagain", "st"], ["Ġm", "elt"], ["Ġcirc", "les"], ["Ġr", "ough"], ["Ġrec", "ord"], ["Ġknow", "s"], ["Ġfr", "idge"], ["Ġshe", "lls"], ["Ġsp", "ace"], ["p", "es"], ["Ġs", "our"], ["Ġwa", "ke"], ["Ġis", "l"], ["Ġisl", "and"], ["M", "ummy"], ["Ġcl", "ay"], ["Ġ", "icy"], ["Ġgo", "at"], ["Ġlearn", "ing"], ["keep", "er"], ["ĠTo", "day"], ["o", "ld"], ["Ġnorm", "al"], ["ll", "a"], ["Ġturt", "le"], ["Ġca", "b"], ["la", "imed"], ["Ġgu", "it"], ["Ġval", "u"], ["Ġsaf", "ely"], ["Ġnot", "ice"], ["Ġwa", "lls"], ["Ġli", "br"], ["Ġsn", "ee"], ["Ġcab", "in"], ["Ġhapp", "iness"], ["Ġst", "ri"], ["Ġcra", "ck"], ["Ġexc", "laimed"], ["Ġpain", "ting"], ["ĠS", "usie"], ["Ġboss", "y"], ["ed", "ient"], ["Ġbag", "s"], ["Ġab", "o"], ["Ġto", "ast"], ["Ġfi", "er"], ["Ġsay", "ing"], ["Ġc", "udd"], ["c", "orn"], ["Ġsound", "ed"], ["Ġdream", "s"], ["Ġb", "itt"], ["bb", "orn"], ["er", "ful"], ["ra", "ge"], ["al", "k"], ["it", "es"], ["b", "s"], ["Ġc", "ri"], ["Ġr", "i"], ["Ġbitt", "er"], ["Ġno", "sy"], ["Ġstu", "bborn"], ["Ġche", "erful"], ["ac", "he"], ["ĠR", "ose"], ["Ġmix", "ed"], ["ad", "o"], ["Ġr", "oof"], ["Ġstraw", "ber"], ["Ġter", "ri"], ["Ġfier", "ce"], ["s", "c"], ["oo", "p"], ["Ġac", "cept"], ["Ġsh", "ad"], ["Ġwip", "ed"], ["Ġdepend", "able"], ["Ġstu", "dy"], ["Ġc", "am"], ["er", "a"], ["Ġesc", "ape"], ["am", "o"], ["Ġfright", "ened"], ["Ġsh", "ark"], ["Ġcray", "on"], ["Ġc", "op"], ["Ġde", "ad"], ["ĠEll", "ie"], ["e", "xt"], ["Ġproud", "ly"], ["Ġspo", "iled"], ["Ġnice", "ly"], ["Ġob", "edient"], ["Ġsto", "ve"], ["w", "ards"], ["art", "h"], ["Ġbus", "hes"], ["ia", "ble"], ["Ġcount", "ed"], ["Ġen", "g"], ["Ġguit", "ar"], ["Ġshow", "ing"], ["Ġtun", "n"], ["ir", "p"], ["Ġf", "rag"], ["Ġoff", "ice"], ["Ġst", "umbled"], ["Ġt", "imes"], ["c", "ient"], ["Ġj", "am"], ["ent", "ion"], ["Ġstrong", "er"], ["Ġlight", "s"], ["Ġinv", "ited"], ["Ġpop", "corn"], ["Ġsmall", "er"], ["Ġspin", "ning"], ["ĠB", "obby"], ["Ġfing", "ers"], ["Ġjo", "ined"], ["Ġwe", "al"], ["Ġun", "k"], ["ow", "ing"], ["amo", "nd"], ["Ġsuggest", "ed"], ["Ġuse", "ful"], ["Ġdelic", "ate"], ["Ġro", "se"], ["Ġvalu", "able"], ["Ġtool", "s"], ["Ġtr", "unk"], ["Ġkick", "ed"], ["a", "ul"], ["Ġdi", "amond"], ["ĠEll", "a"], ["Ġind", "epend"], ["Ġro", "de"], ["Ġthem", "selves"], ["Ġan", "cient"], ["Ġc", "ity"], ["Ġpar", "rot"], ["Ġexcited", "ly"], ["Ġrel", "iable"], ["Ġclean", "ing"], ["Ġexpl", "ored"], ["Ġthought", "ful"], ["Ġt", "ummy"], ["Ġlo", "cked"], ["Ġabo", "ve"], ["Ġd", "ough"], ["Ġz", "ip"], ["Ġbe", "ak"], ["Ġsol", "ve"], ["re", "ss"], ["im", "p"], ["ĠN", "emo"], ["ĠD", "an"], ["ar", "ry"], ["Ġcost", "um"], ["Ġhold", "s"], ["or", "ge"], ["Ġf", "ountain"], ["Ġfrag", "ile"], ["Ġmov", "ie"], ["Ġres", "c"], ["Ġst", "ream"], ["Ġun", "lo"], ["n", "a"], ["ĠF", "in"], ["ĠFin", "ally"], ["Ġscr", "at"], ["ĠMr", "s"], ["Ġmag", "n"], ["n", "own"], ["Ġkind", "s"], ["Ġus", "ing"], ["Ġwhisp", "ered"], ["Ġo", "w"], ["ĠYou", "r"], ["Ġme", "m"], ["Ġbu", "ilt"], ["Ġha", "lf"], ["ut", "h"], ["Ġindepend", "ent"], ["Ġy", "arn"], ["s", "es"], ["Ġdo", "ve"], ["œ", "Let"], ["Ġg", "em"], ["Ġt", "ank"], ["Ġway", "s"], ["r", "ay"], ["ip", "e"], ["ro", "co"], ["Ġsn", "iff"], ["Ġp", "il"], ["Ġboat", "s"], ["Ġte", "le"], ["Ġgra", "ndpa"], ["Ġor", "ig"], ["Ġpract", "ice"], ["Ġseed", "s"], ["Ġtw", "ig"], ["Ġremind", "ed"], ["Ġbright", "ly"], ["Ġunk", "nown"], ["in", "al"], ["Ġboun", "ce"], ["an", "ut"], ["ĠD", "ucky"], ["Ġdes", "ign"], ["it", "her"], ["Ġste", "al"], ["Ġsuccess", "ful"], ["ol", "a"], ["Ġgu", "ard"], ["Ġser", "ious"], ["Ġjo", "lly"], ["Ġche", "ap"], ["Ġc", "one"], ["Ġsun", "f"], ["Ġadm", "ired"], ["Ġen", "orm"], ["Ġenorm", "ous"], ["roco", "d"], ["Ġcam", "era"], ["Ġorig", "inal"], ["Ġpain", "ted"], ["Ġla", "b"], ["ĠF", "red"], ["Ġh", "oop"], ["Ġflash", "light"], ["Ġwas", "hed"], ["m", "ed"], ["ur", "ing"], ["Ġac", "orn"], ["Ġmar", "ble"], ["Ġpo", "st"], ["Ġbra", "ce"], ["Ġcl", "um"], ["umb", "ers"], ["Ġsw", "e"], ["e", "orge"], ["u", "nder"], ["Ġch", "anged"], ["Ġbar", "ber"], ["Ġhel", "m"], ["ip", "op"], ["ll", "ipop"], ["Ġ", "U"], ["p", "ack"], ["u", "nt"], ["Ġa", "unt"], ["Ġbe", "es"], ["Ġpump", "kin"], ["Ġth", "irst"], ["Ġperf", "orm"], ["Ġdelight", "ed"], ["Ġeng", "ine"], ["Ġar", "row"], ["Ġclo", "ck"], ["Ġd", "ust"], ["Ġstu", "p"], ["Ġstup", "id"], ["Ġst", "airs"], ["Ġdoes", "n"], ["Ġto", "r"], ["Ġbe", "an"], ["Ġc", "rocod"], ["Ġen", "vel"], ["Ġsh", "one"], ["in", "ary"], ["Ġor", "d"], ["v", "ice"], ["Ġch", "ose"], ["Ġy", "et"], ["in", "es"], ["Ġplay", "ful"], ["Ġweal", "thy"], ["ĠAl", "ice"], ["Ġfind", "ing"], ["Ġlo", "llipop"], ["Ġen", "c"], ["Ġdolp", "hin"], ["Ġru", "bb"], ["Ġd", "ull"], ["Ġopen", "s"], ["Ġcomp", "ass"], ["Ġfor", "th"], ["S", "ee"], ["Ġsleep", "ing"], ["Ġstop", "s"], ["oom", "y"], ["Ġflut", "e"], ["Ġpe", "anut"], ["ug", "ged"], ["i", "ence"], ["Ġru", "bbed"], ["Ġst", "amp"], ["Ġang", "el"], ["Ġfre", "sh"], ["at", "ue"], ["Ġclum", "sy"], ["Ġra", "ced"], ["Ġterri", "ble"], ["!\"", "."], ["Ġdest", "ro"], ["Ġthirst", "y"], ["Ġtow", "ers"], ["Ġpir", "ate"], ["Ġtell", "ing"], ["Ġmo", "der"], ["Ġpot", "ato"], ["Ġsal", "ad"], ["d", "om"], ["Ġcr", "ane"], ["Ġjack", "et"], ["Ġhair", "y"], ["Ġmo", "le"], ["ic", "t"], ["ie", "w"], ["Ġn", "umbers"], ["ill", "a"], ["ĠK", "im"], ["m", "mer"], ["Ġdream", "ing"], ["Ġha", "mmer"], ["Ġs", "ink"], ["e", "ked"], ["Ġhand", "ed"], ["Ġfriends", "hip"], ["Ġp", "ant"], ["g", "est"], ["t", "ime"], ["ĠBob", "o"], ["Ġm", "is"], ["Ġsear", "ching"], ["Ġpe", "bble"], ["Ġth", "ose"], ["Ġpick", "ing"], ["ĠWhen", "ever"], ["Ġst", "atue"], ["Ġh", "ay"], ["Ġtom", "ato"], ["Ġv", "iew"], ["Ġ", "ing"], ["Ġdri", "ving"], ["Ġn", "ature"], ["ation", "s"], ["Ġend", "ing"], ["Ġto", "oth"], ["Ġst", "age"], ["Ġbig", "gest"], ["Ġcare", "less"], ["Ġpe", "eked"], ["red", "ient"], ["Ġing", "redient"], ["Ġmoder", "n"], ["Ġte", "m"], ["Ġsho", "cked"], ["Ġgrace", "ful"], ["Ġslid", "es"], ["Ġsp", "illed"], ["he", "t"], ["Ġpop", "ular"], ["i", "o"], ["ĠTweet", "y"], ["Ġcomp", "ut"], ["Ġf", "lex"], ["Ġimpre", "ss"], ["Ġth", "under"], ["W", "hile"], ["ĠB", "ella"], ["Ġprin", "t"], ["Ġpre", "p"], ["Ġcompass", "ion"], ["Ġdes", "k"], ["Ġmiss", "ing"], ["id", "ing"], ["Ġwa", "ff"], ["B", "y"], ["mb", "re"], ["Ġpen", "gu"], ["Ġsa", "uce"], ["Ġsh", "iver"], ["Ġu", "mbre"], ["Ġpri", "ze"], ["ĠM", "ar"], ["ĠW", "hile"], ["Ġcarry", "ing"], ["ag", "het"], ["aghet", "ti"], ["Ġwe", "ek"], ["Ġdel", "iver"], ["ĠD", "ave"], ["Ġear", "ly"], ["Ġgas", "ped"], ["Ġm", "el"], ["Ġav", "o"], ["Ġpi", "ano"], ["Ġtr", "uth"], ["ĠS", "n"], ["Ġreg", "ular"], ["ro", "be"], ["Ġtunn", "el"], ["Ġce", "re"], ["Ġcra", "zy"], ["Ġw", "ing"], ["Ġli", "z"], ["Ġre", "ward"], ["Ġsc", "atter"], ["Ġpar", "ade"], ["Ġpers", "ist"], ["Ġme", "al"], ["Ġr", "ug"], ["Ġwhe", "els"], ["f", "a"], ["Ġsp", "aghetti"], ["Ġflex", "ible"], ["Ġlo", "ad"], ["Ġpig", "e"], ["Ġsqu", "are"], ["ĠM", "ike"], ["Ġn", "urse"], ["Ġad", "vice"], ["Ġg", "oose"], ["em", "ent"], ["Ġc", "ur"], ["Ġcrocod", "ile"], ["Ġe", "arth"], ["Ġjump", "s"], ["Ġst", "ack"], ["Ġsur", "f"], ["Ġp", "atter"], ["Ġspr", "ing"], ["Ġenvel", "ope"], ["Ġtor", "n"], ["Ġtra", "sh"], ["is", "ion"], ["Ġimag", "ined"], ["Ġun", "cle"], ["Ġwindow", "s"], ["Ġw", "ire"], ["Ġsc", "ale"], ["Ġstick", "ers"], ["Ġingredient", "s"], ["Ġt", "ied"], ["Ġbrace", "let"], ["Ġpatter", "n"], ["Ġcre", "ate"], ["Ġspo", "ke"], ["Ġch", "arm"], ["Ġthin", "king"], ["Ġw", "itch"], ["Ġcom", "b"], ["Ġtra", "vel"], ["ĠP", "e"], ["ell", "ig"], ["ho", "st"], ["ĠL", "ook"], ["Ġharm", "less"], ["Ġa", "head"], ["Ġbu", "ll"], ["Ġint", "ellig"], ["Ġgrow", "ing"], ["Ġquest", "ion"], ["Ġwar", "ned"], ["Ġcere", "al"], ["Ġh", "ipp"], ["Ġimpress", "ive"], ["Ġper", "m"], ["œ", "What"], ["Ġb", "ent"], ["Ġcomput", "er"], ["Ġdestro", "y"], ["a", "id"], ["Ġbeaut", "y"], ["Ġor", "der"], ["ĠHe", "re"], ["Ġen", "v"], ["Ġcount", "ing"], ["Ġcelebr", "ate"], ["œ", "Yes"], ["Ġcri", "cket"], ["Ġmail", "box"], ["Ġsor", "ts"], ["Ġspark", "led"], ["Ġg", "host"], ["udd", "y"], ["Ġmu", "sh"], ["Ġsunf", "lower"], ["com", "fort"], ["Ġpu", "p"], ["Ġmush", "room"], ["Ġent", "h"], ["Ġhum", "ble"], ["ac", "hes"], ["ic", "hes"], ["Ġbutterf", "lies"], ["Ġlibr", "ary"], ["œLet", "â"], ["Ġcomp", "let"], ["c", "ut"], ["Ġcoo", "king"], ["Ġd", "ug"], ["Ġliz", "ard"], ["Ġob", "ject"], ["Ġpen", "ny"], ["co", "a"], ["comfort", "able"], ["ĠGra", "ndpa"], ["Ġenth", "us"], ["Ġpat", "ch"], ["œ", "It"], ["eb", "ra"], ["Ġnam", "es"], ["Ġun", "comfortable"], ["Ġsad", "ly"], ["ĠF", "r"], ["Ġcompetit", "ive"], ["or", "ant"], ["Ġbad", "ly"], ["Ġh", "ook"], ["ill", "ie"], ["Ġumbre", "lla"], ["Ġpersist", "ent"], ["Ġbe", "ep"], ["Ġgl", "oomy"], ["Ġo", "t"], ["Ġcouldn", "â"], ["Ġt", "ur"], ["ke", "y"], ["Ġm", "ill"], ["Ġread", "ing"], ["i", "kes"], ["Ġot", "ter"], ["oph", "ie"], ["ĠG", "ive"], ["Ġtra", "p"], ["Ġso", "fa"], ["ĠTo", "by"], ["Ġru", "les"], ["Ġph", "ot"], ["Ġscre", "en"], ["Ġsn", "uggled"], ["Ġcharm", "ing"], ["ic", "es"], ["Ġfl", "our"], ["Ġign", "orant"], ["Ġun", "iver"], ["Ġz", "ebra"], ["Ġle", "ash"], ["Ġold", "er"], ["Ġhunt", "er"], ["Ġplac", "ed"], ["g", "ust"], ["Ġg", "ir"], ["Ġc", "amp"], ["Ġhun", "g"], ["Ġre", "fused"], ["Ġal", "ert"], ["Ġan", "x"], ["Ġset", "t"], ["ie", "f"], ["Ġdis", "gust"], ["Ġpant", "s"], ["ĠB", "ear"], ["Ġn", "ail"], ["Ġsco", "ot"], ["Ġm", "ay"], ["Ġco", "coa"], ["Ġsandw", "iches"], ["R", "e"], ["Ġenc", "ou"], ["Ġpretend", "ing"], ["Ġsh", "ine"], ["Ġsp", "eed"], ["Ġsh", "ut"], ["ad", "dy"], ["Ġgra", "nd"], ["i", "ven"], ["Ġcoll", "ar"], ["Ġcup", "board"], ["Ġtur", "key"], ["Ġval", "ue"], ["Ġintellig", "ent"], ["Ġtwirl", "ed"], ["Ġanx", "ious"], ["Ġp", "ony"], ["Ġch", "asing"], ["Ġgif", "ted"], ["ce", "ed"], ["Ġstart", "s"], ["Ġord", "inary"], ["ĠM", "ummy"], ["Ġp", "urse"], ["Ġb", "ase"], ["Ġany", "where"], ["Ġch", "ance"], ["Ġne", "at"], ["Ġl", "ed"], ["Ġshout", "s"], ["Ġc", "urt"], ["M", "ary"], ["nn", "ie"], ["Ġcreature", "s"], ["Ġnut", "s"], ["is", "k"], ["Ġcart", "oon"], ["Ġcurt", "ain"], ["Ġhipp", "o"], ["Ġsu", "per"], ["Ġatt", "ract"], ["Ġde", "af"], ["ĠA", "re"], ["ĠS", "h"], ["g", "y"], ["Ġpe", "pper"], ["Ġsk", "ip"], ["us", "ed"], ["b", "led"], ["Ġpast", "a"], ["Ġsold", "ier"], ["a", "z"], ["u", "bby"], ["Ġc", "ase"], ["Ġblue", "ber"], ["Ġs", "end"], ["Ġc", "ards"], ["Ġletter", "s"], ["Ġsh", "aking"], ["Ġg", "or"], ["ĠP", "at"], ["Ġband", "age"], ["ve", "ly"], ["Ġvo", "l"], ["c", "ream"], ["Ġtri", "ck"], ["Ġcompassion", "ate"], ["Ġtr", "ump"], ["st", "ri"], ["Ġstick", "er"], ["Ġf", "u"], ["Ġres", "ist"], ["a", "ff"], ["ĠW", "h"], ["Ġcar", "p"], ["Ġhur", "ry"], ["J", "im"], ["Ġfear", "ful"], ["Ġpull", "s"], ["Ġboun", "ced"], ["Ġcl", "ub"], ["Ġdisgust", "ing"], ["Ġbright", "er"], ["Ġdecor", "ate"], ["Ġtri", "ang"], ["Ġstret", "ched"], ["ct", "op"], ["ctop", "us"], ["Ġb", "icy"], ["Ġpre", "ssed"], ["Ġatt", "ic"], ["er", "able"], ["Ġcom", "pl"], ["Ġsqu", "ash"], ["Ġli", "vely"], ["ĠBrown", "ie"], ["Ġit", "self"], ["By", "e"], ["Ġcou", "rage"], ["Ġpract", "iced"], ["i", "est"], ["Ġche", "er"], ["Ġsuc", "ceed"], ["Ġhelm", "et"], ["Ġm", "ug"], ["c", "ano"], ["Ġch", "ubby"], ["ic", "op"], ["icop", "ter"], ["Ġc", "ows"], ["Ġfil", "thy"], ["Ġmel", "on"], ["Ġmis", "erable"], ["Ġo", "ctopus"], ["Ġsupp", "ort"], ["Ġrad", "io"], ["Ġme", "as"], ["ur", "ed"], ["ĠL", "ee"], ["Ġdraw", "er"], ["Ġt", "en"], ["Ġpige", "on"], ["Ġdist", "ur"], ["Ġb", "et"], ["e", "en"], ["Ġf", "our"], ["Ġd", "ess"], ["Ġbark", "ing"], ["Ġhel", "icopter"], ["ht", "ub"], ["Ġgra", "bs"], ["Ġtrump", "et"], ["Ġje", "ep"], ["Ġbat", "htub"], ["Ġlion", "s"], ["Ġdistur", "b"], ["Ġen", "er"], ["Ġcry", "st"], ["Ġpo", "em"], ["Ġbar", "rel"], ["Ġrep", "e"], ["Ġpaw", "s"], ["Ġany", "way"], ["Ġattract", "ive"], ["Ġhelp", "less"], ["Ġimp", "at"], ["Ġsal", "t"], ["Ben", "ny"], ["ĠM", "andy"], ["Ġcarp", "et"], ["Ġl", "id"], ["Ġvol", "cano"], ["ĠE", "ventually"], ["oph", "one"], ["Ġmonkey", "s"], ["Ġspl", "it"], ["Ġtr", "ay"], ["Ġhair", "cut"], ["œ", "That"], ["ĠJoe", "y"], ["Ġback", "pack"], ["aur", "ant"], ["Ġrest", "less"], ["Ġthre", "ad"], ["Ġenv", "ious"], ["Ġc", "omet"], ["Ġgigg", "le"], ["Ġgor", "illa"], ["Al", "ice"], ["um", "mer"], ["Ġrest", "aurant"], ["g", "n"], ["n", "oon"], ["Ġafter", "noon"], ["Ġcoo", "ked"], ["ĠR", "o"], ["ll", "ing"], ["Ġsand", "box"], ["stri", "ch"], ["Ġimpat", "ient"], ["ĠW", "here"], ["Ġm", "ask"], ["Ġsp", "ell"], ["or", "able"], ["Ġpack", "age"], ["Ġstep", "s"], ["Ġall", "ig"], ["Ġno", "body"], ["Ġwis", "hes"], ["en", "ry"], ["Ġp", "un"], ["Ġcat", "s"], ["Ġsome", "where"], ["ast", "ic"], ["n", "ight"], ["Ġnow", "here"], ["Ġra", "ven"], ["Ġc", "ush"], ["Ġf", "ive"], ["Ġz", "ipp"], ["Ġb", "ri"], ["Ġh", "ars"], ["Ġr", "ice"], ["Ġth", "ief"], ["Ġre", "co"], ["Ġsho", "e"], ["ir", "on"], ["Ġrespect", "ful"], ["he", "art"], ["Ġv", "ide"], ["ĠL", "ola"], ["Ġad", "orable"], ["Ġfrown", "ed"], ["Ġgo", "al"], ["Ġbicy", "cle"], ["c", "col"], ["ll", "ie"], ["ccol", "i"], ["Ġele", "v"], ["Ġfur", "ther"], ["Ġl", "as"], ["Ġfind", "s"], ["Ġp", "and"], ["ĠP", "aul"], ["Ġpus", "hes"], ["Ġhars", "h"], ["Ġse", "al"], ["Ġstret", "ch"], ["Ġfor", "t"], ["Ġse", "p"], ["Ġsep", "ar"], ["Ġm", "ath"], ["Ġdess", "ert"], ["Ġbe", "ars"], ["Ġsh", "ield"], ["Ġmagn", "et"], ["ĠA", "lex"], ["Ġv", "ine"], ["Ġelev", "ator"], ["Ġqu", "ar"], ["ll", "ed"], ["Ġro", "lled"], ["Ġmic", "r"], ["Ġmu", "ff"], ["Ġun", "pack"], ["Ġstir", "red"], ["Ġadm", "ire"], ["Ġfire", "man"], ["Ġkno", "ck"], ["Ġli", "p"], ["Ġlight", "ning"], ["st", "airs"], ["Ġho", "les"], ["Ġorgan", "ize"], ["Ġs", "le"], ["Ġtri", "pped"], ["er", "as"], ["st", "r"], ["Ġloo", "p"], ["Ġri", "bb"], ["Ġshad", "ow"], ["Ġt", "ire"], ["ĠEvery", "thing"], ["Ġmod", "est"], ["eb", "ook"], ["el", "ery"], ["gg", "ing"], ["Ġhapp", "ier"], ["Ġme", "at"], ["Every", "one"], ["co", "nd"], ["st", "ic"], ["Ġnot", "ebook"], ["Ġtra", "ins"], ["ang", "ar"], ["angar", "oo"], ["Ġdis", "hes"], ["Ġexp", "er"], ["Ġscre", "w"], ["Ġswing", "ing"], ["Ġu", "r"], ["Ġs", "ent"], ["Ġse", "cond"], ["Ġst", "ared"], ["ĠTweet", "ie"], ["Ġcand", "le"], ["Ġdidn", "â"], ["Ġwall", "et"], ["Ġlisten", "ing"], ["Ġdist", "ant"], ["Ġo", "strich"], ["Ġdraw", "ings"], ["Ġsw", "itch"], ["Ġjo", "kes"], ["Ġmicr", "ophone"], ["Ġro", "ared"], ["Ġle", "op"], ["Ġs", "ize"], ["ia", "stic"], ["Ġenthus", "iastic"], ["Ġbro", "ccoli"], ["Ġscoot", "er"], ["Ġavo", "c"], ["Ġtrou", "bled"], ["m", "ith"], ["Ġk", "angaroo"], ["Ġshe", "et"], ["e", "er"], ["Ġh", "ive"], ["isk", "ers"], ["Ġm", "ama"], ["Ġo", "l"], ["ĠG", "eorge"], ["Ġforg", "ave"], ["arl", "ie"], ["Ġsl", "ipp"], ["Ġimp", "ro"], ["Ġqu", "ite"], ["Ġpa", "id"], ["Ġcard", "board"], ["uc", "t"], ["Ġche", "cked"], ["Ġob", "ser"], ["Ġr", "iding"], ["Ġin", "se"], ["Ġwhe", "at"], ["ĠR", "ed"], ["Ġcu", "be"], ["Ġhe", "dge"], ["Ġsil", "ver"], ["D", "aisy"], ["Ġ", "eras"], ["ĠB", "uddy"], ["Ġrem", "o"], ["Ġsa", "us"], ["re", "c"], ["ĠJ", "er"], ["Ġhum", "an"], ["Ġsp", "eak"], ["ĠJer", "ry"], ["ĠW", "ould"], ["Ġra", "ft"], ["Ġresc", "ue"], ["Ġsh", "akes"], ["Ġsho", "vel"], ["Ġal", "ive"], ["Ġcount", "ry"], ["Ġsoft", "ly"], ["cy", "cle"], ["g", "ie"], ["Ġshr", "imp"], ["Ġreco", "gn"], ["Ġc", "elery"], ["ĠS", "mith"], ["Ġallig", "ator"], ["Ġb", "ikes"], ["fe", "e"], ["ir", "it"], ["Ġha", "ll"], ["Ġs", "ummer"], ["h", "ood"], ["Ġbr", "us"], ["Ġcostum", "e"], ["y", "ear"], ["rec", "i"], ["D", "addy"], ["f", "fee"], ["Ġcl", "apping"], ["Ġe", "ither"], ["Ġmess", "age"], ["Ġpro", "v"], ["id", "es"], ["Ġapp", "reci"], ["Ġbeh", "ave"], ["Ġon", "ion"], ["ĠB", "unny"], ["Ġst", "om"], ["ĠSn", "ow"], ["Ġju", "dge"], ["Ġsco", "ld"], ["ha", "ppy"], ["Ġin", "k"], ["Ġzoom", "ed"], ["l", "ter"], ["Ġcryst", "al"], ["Ġt", "ask"], ["ol", "in"], ["Ġv", "i"], ["al", "ace"], ["re", "nder"], ["Ġav", "ail"], ["Ġbu", "zz"], ["Ġp", "alace"], ["Ġp", "or"], ["Ġswe", "ater"], ["Ġsweet", "heart"], ["Ġpengu", "in"], ["Ġput", "ting"], ["Ġtreasure", "s"], ["Ġbreak", "s"], ["Ġpap", "ers"], ["Ġpus", "hing"], ["Ġshe", "lter"], ["c", "ast"], ["Ġfeel", "ings"], ["Ġleop", "ard"], ["Ġstart", "ing"], ["Ġca", "ct"], ["Ġm", "en"], ["Ġmar", "ry"], ["Ġre", "ind"], ["Ġvis", "ited"], ["Ġjelly", "fish"], ["Ġy", "ach"], ["Ġfall", "ing"], ["Ġgo", "lf"], ["Ġlas", "er"], ["Ġsand", "cast"], ["Ġg", "ro"], ["an", "ed"], ["Ġt", "ax"], ["ar", "nt"], ["Ġener", "gy"], ["Ġle", "arnt"], ["Ġm", "ild"], ["Ġp", "ed"], ["Ġavail", "able"], ["ĠO", "r"], ["Ġpo", "le"], ["Ġcol", "ours"], ["Ġ", "iron"], ["Ġbo", "ots"], ["Ġend", "ed"], ["b", "ul"], ["l", "s"], ["ar", "b"], ["Ġbasket", "ball"], ["Ġhop", "ing"], ["Ġtri", "cks"], ["pl", "ay"], ["Ġclimb", "ing"], ["Ġsh", "ade"], ["ag", "re"], ["Ġplan", "et"], ["Gra", "ndma"], ["ĠB", "et"], ["Ġg", "iven"], ["Ġgra", "pes"], ["er", "op"], ["erop", "l"], ["a", "it"], ["Ġa", "eropl"], ["Ġsp", "irit"], ["Ġun", "happy"], ["Ġfl", "ies"], ["Ġreind", "eer"], ["Ġsmell", "s"], ["Ġpol", "ish"], ["Ġb", "ur"], ["Jen", "ny"], ["Ġbark", "s"], ["op", "hy"], ["ĠC", "l"], ["Ġcact", "us"], ["Ġdis", "agre"], ["Ġeras", "er"], ["Ġfis", "her"], ["Ġfr", "ame"], ["Ġspr", "ink"], ["af", "fe"], ["Ġc", "able"], ["Ġpil", "ot"], ["Ġsh", "ort"], ["Ġco", "ffee"], ["Ġyach", "t"], ["e", "f"], ["s", "hed"], ["if", "lower"], ["Ġb", "in"], ["Ġca", "ul"], ["Ġch", "alk"], ["Ġqu", "it"], ["Ġar", "t"], ["Ġtax", "i"], ["Ġp", "ipe"], ["Ġrain", "ing"], ["c", "cer"], ["nd", "ry"], ["u", "ndry"], ["Ġfoot", "ball"], ["Ġshop", "keeper"], ["Ġtr", "ophy"], ["ĠWh", "iskers"], ["Ġbu", "l"], ["g", "es"], ["Ġdis", "play"], ["Ġla", "undry"], ["Ġdrop", "s"], ["Ġk", "ay"], ["a", "ked"], ["Ġpe", "ek"], ["Ġl", "end"], ["Ġo", "y"], ["Ġpre", "ss"], ["Ġso", "ccer"], ["Ġtriang", "le"], ["Ġve", "nd"], ["Ġs", "ym"], ["ri", "c"], ["e", "ze"], ["ec", "ause"], ["Ġinc", "l"], ["ĠS", "andy"], ["ĠT", "r"], ["Ġpand", "a"], ["Ġrubb", "er"], ["Ġtun", "a"], ["Ġthr", "ows"], ["ow", "der"], ["Ġhad", "n"], ["ag", "gie"], ["Ġair", "p"], ["Ġairp", "ort"], ["Ġdis", "c"], ["Ġunlo", "ck"], ["z", "zy"], ["ĠB", "u"], ["Ġmu", "se"], ["Ġmuse", "um"], ["Ġfold", "er"], ["Ġp", "owder"], ["Ġsk", "ill"], ["ke", "let"], ["Ġbanan", "as"], ["Ġcaul", "iflower"], ["Ġro", "lling"], ["Ġthan", "ks"], ["al", "ed"], ["Ġli", "e"], ["Ġmix", "er"], ["Ġsur", "render"], ["Ġgir", "affe"], ["ma", "nd"], ["Ġcount", "er"], ["Ġd", "ive"], ["Ġinse", "ct"], ["TM", "m"], ["Ġneighb", "our"], ["n", "am"], ["sel", "y"], ["Ġcool", "er"], ["Ġimag", "ine"], ["g", "en"], ["Ġtra", "il"], ["€", "“"], ["Ġcush", "ion"], ["Ġvi", "olin"], ["Ġpl", "astic"], ["ĠGra", "ce"], ["Ġfrog", "s"], ["Ġin", "s"], ["Ġc", "ord"], ["n", "ger"], ["Ġam", "bul"], ["Ġstuff", "ed"], ["Ġw", "ool"], ["sp", "ap"], ["Ġli", "ves"], ["Ġmar", "ched"], ["Ġsym", "bo"], [".", "."], ["e", "ks"], ["Ġpoin", "ts"], ["Ġapolog", "ized"], ["Ġfa", "uc"], ["e", "ath"], ["Ġnew", "spap"], ["Ġw", "ife"], ["Ġle", "aned"], ["Ġwa", "ving"], ["Ġphot", "o"], ["Ġstrawber", "ry"], ["ur", "ch"], ["Ġclo", "sely"], ["Ġcup", "s"], ["Ġso", "il"], ["Ġthe", "ater"], ["w", "een"], ["Ġeag", "erly"], ["kelet", "on"], ["Ġbelong", "s"], ["Ġbet", "ween"], ["Ġcher", "ries"], ["Ġeven", "ing"], ["Ġcomplet", "e"], ["Ġdi", "ary"], ["Ġshould", "n"], ["ic", "er"], ["Ġfisher", "man"], ["ĠS", "ophie"], ["Ġimag", "ination"], ["Ġpe", "ach"], ["Ġpor", "ch"], ["p", "le"], ["Ġambul", "ance"], ["Ġt", "ub"], ["Ġmag", "az"], ["m", "m"], ["Ġb", "le"], ["Ġfauc", "et"], ["Ġl", "ime"], ["Ġperfect", "ly"], ["Ġvend", "or"], ["ĠAnd", "y"], ["Ġa", "x"], ["Ġforgot", "ten"], ["Ġwip", "e"], ["Ġminut", "e"], ["Ġre", "ver"], ["Ġsw", "ung"], ["Ġins", "ist"], ["ac", "es"], ["ĠR", "os"], ["Ġfield", "s"], ["Ġste", "ak"], ["nam", "ent"], ["Ġcre", "ated"], ["Ġp", "age"], ["Ġs", "ir"], ["Ġwel", "com"], ["Ġyog", "urt"], ["Ġatt", "ention"], ["hin", "o"], ["Ġno", "vel"], ["l", "ass"], ["Ġsun", "g"], ["Ġmu", "le"], ["iz", "es"], ["Ġfl", "ame"]]}